<unk>	0
<s>	0
</s>	0
▁ک	-0
▁ا	-1
▁ہ	-2
▁م	-3
یں	-4
▁ب	-5
▁س	-6
▁ت	-7
▁پ	-8
▁ن	-9
▁کی	-10
▁ہے	-11
ان	-12
▁ج	-13
▁د	-14
ور	-15
ار	-16
▁ہو	-17
▁کے	-18
▁میں	-19
یا	-20
▁کا	-21
▁و	-22
▁ر	-23
▁گ	-24
▁کر	-25
▁ل	-26
▁اس	-27
▁کو	-28
ات	-29
▁سے	-30
وں	-31
ال	-32
یک	-33
اي	-34
▁ہے۔	-35
▁ی	-36
▁ان	-37
ھی	-38
▁ہیں	-39
▁نہ	-40
ری	-41
ام	-42
▁چ	-43
▁خ	-44
▁یہ	-45
▁اور	-46
تا	-47
▁ش	-48
نے	-49
▁ف	-50
ست	-51
▁ع	-52
نا	-53
▁پر	-54
▁ح	-55
ین	-56
▁نہیں	-57
▁کہ	-58
▁تو	-59
▁تھ	-60
اک	-61
▁ق	-62
يی	-63
اہ	-64
لا	-65
▁نے	-66
▁بھی	-67
▁اپ	-68
یر	-69
یس	-70
▁رہ	-71
تے	-72
▁وہ	-73
تی	-74
يے	-75
لی	-76
▁ٹ	-77
▁ایک	-78
▁ہیں۔	-79
▁کیا	-80
▁ہم	-81
اب	-82
ند	-83
اد	-84
▁ص	-85
نی	-86
▁ہوں	-87
▁ز	-88
ستان	-89
یم	-90
▁ط	-91
▁پاک	-92
▁لی	-93
می	-94
ول	-95
▁جو	-96
▁پاکستان	-97
ے۔	-98
اری	-99
▁دو	-100
▁پہ	-101
سی	-102
از	-103
ید	-104
▁تھا	-105
لہ	-106
اں	-107
▁ڈ	-108
▁اب	-109
▁ہی	-110
چھ	-111
نگ	-112
کھ	-113
ھر	-114
ايی	-115
▁بہ	-116
ون	-117
▁گا	-118
▁دی	-119
▁ال	-120
▁رو	-121
لے	-122
▁خو	-123
ايے	-124
▁مع	-125
لم	-126
▁مل	-127
یت	-128
▁بہت	-129
وم	-130
▁بی	-131
قت	-132
▁سک	-133
گر	-134
▁سو	-135
جھ	-136
▁مو	-137
رو	-138
را	-139
انی	-140
▁بات	-141
▁کويی	-142
رف	-143
▁ایس	-144
▁پی	-145
دی	-146
▁مس	-147
▁سب	-148
دہ	-149
▁جات	-150
▁کھ	-151
▁ام	-152
▁بن	-153
انے	-154
ارے	-155
▁لو	-156
▁گیا	-157
ٹی	-158
▁کچھ	-159
▁لیے	-160
▁اج	-161
▁غ	-162
▁۔	-163
▁چاہ	-164
اتھ	-165
رد	-166
▁کام	-167
▁وال	-168
▁ای	-169
▁کم	-170
▁جا	-171
▁بھ	-172
گی	-173
▁من	-174
▁دن	-175
▁می	-176
رے	-177
▁سی	-178
▁بڑ	-179
▁مح	-180
▁اد	-181
▁یا	-182
▁اپنے	-183
▁جب	-184
ٹر	-185
▁تھی	-186
ما	-187
▁کرتا	-188
▁بر	-189
▁لگ	-190
▁لوگ	-191
اف	-192
▁ہوتا	-193
▁رہا	-194
بی	-195
▁دوس	-196
▁فی	-197
اح	-198
▁کرنے	-199
قی	-200
▁ض	-201
▁رکھ	-202
▁سیا	-203
▁رہے	-204
▁تھا۔	-205
▁تم	-206
▁کسی	-207
▁چھ	-208
▁حک	-209
ود	-210
▁مق	-211
اس	-212
▁وقت	-213
▁عم	-214
▁دیک	-215
یکن	-216
▁تع	-217
خت	-218
لام	-219
▁پھر	-220
▁شک	-221
رح	-222
▁اف	-223
▁کرنا	-224
شن	-225
یز	-226
ورت	-227
ٹھ	-228
▁جس	-229
▁ساتھ	-230
کی	-231
ران	-232
▁لیکن	-233
▁نظ	-234
ڑی	-235
▁اع	-236
▁ہوا	-237
▁اپنی	-238
▁کار	-239
▁دیکھ	-240
▁مجھ	-241
▁ہوں۔	-242
▁گی	-243
▁ہر	-244
▁جن	-245
▁جان	-246
▁دل	-247
▁تھے۔	-248
▁در	-249
▁دیا	-250
▁سر	-251
▁میر	-252
▁ذ	-253
▁مش	-254
رین	-255
او	-256
عد	-257
▁ملک	-258
▁تک	-259
▁نو	-260
▁مت	-261
جہ	-262
وری	-263
▁دنیا	-264
▁چاہی	-265
کر	-266
▁ضر	-267
▁کب	-268
▁گيی	-269
▁جايے	-270
▁مجھے	-271
▁گا۔	-272
مال	-273
▁گيے	-274
یاں	-275
▁کرتے	-276
▁تر	-277
مہ	-278
▁جاتا	-279
▁حکوم	-280
جی	-281
▁اسے	-282
▁انت	-283
یل	-284
▁رہی	-285
ہر	-286
▁وا	-287
رم	-288
▁اخ	-289
لاف	-290
▁ٹیم	-291
کہ	-292
▁پڑ	-293
بر	-294
کل	-295
▁او	-296
▁ہونے	-297
▁سم	-298
ہیں	-299
▁فیص	-300
▁بعد	-301
▁یہاں	-302
انا	-303
اص	-304
▁حکومت	-305
▁حال	-306
در	-307
▁ہونا	-308
▁ار	-309
▁اگر	-310
▁با	-311
قع	-312
▁تھے	-313
▁اللہ	-314
▁زیا	-315
▁مط	-316
▁دور	-317
▁یہی	-318
▁قو	-319
فا	-320
▁ایسا	-321
وٹ	-322
▁زیادہ	-323
▁طرح	-324
انہ	-325
▁اح	-326
▁گے	-327
▁پس	-328
لاق	-329
دار	-330
▁بد	-331
▁نام	-332
▁انس	-333
نچ	-334
ايیں	-335
وس	-336
لق	-337
▁بار	-338
▁ہمارے	-339
▁تھی۔	-340
وب	-341
▁اسلام	-342
▁سام	-343
▁چل	-344
▁سال	-345
▁پہلے	-346
▁اسی	-347
اش	-348
ریک	-349
ینڈ	-350
▁ات	-351
فی	-352
ارت	-353
ليے	-354
▁مر	-355
تم	-356
ٹری	-357
▁بل	-358
▁کپ	-359
▁ہوتی	-360
▁است	-361
اہر	-362
▁ور	-363
کے	-364
▁اص	-365
▁صرف	-366
ارا	-367
▁گز	-368
▁تح	-369
الی	-370
▁جہ	-371
ادی	-372
ارہ	-373
▁ہويے	-374
▁بج	-375
▁ٹھ	-376
وی	-377
▁اک	-378
▁سمجھ	-379
▁ليے	-380
▁کہا	-381
▁خان	-382
جود	-383
▁ہوتے	-384
▁سن	-385
▁پسند	-386
▁کبھی	-387
▁بے	-388
روع	-389
▁طرف	-390
▁وز	-391
سم	-392
▁شروع	-393
امی	-394
▁کیليے	-395
▁جیس	-396
▁فیصلہ	-397
اين	-398
▁نا	-399
▁کریں	-400
یو	-401
▁تب	-402
▁کس	-403
▁چاہیے۔	-404
▁اہ	-405
▁سوچ	-406
▁لیا	-407
▁نظر	-408
▁فلم	-409
▁پید	-410
نڈ	-411
کٹ	-412
کا	-413
یسٹ	-414
▁زم	-415
ریز	-416
▁بچ	-417
فر	-418
▁مد	-419
رب	-420
▁پاکستانی	-421
▁ہويی	-422
▁مز	-423
▁خوش	-424
▁پہنچ	-425
▁لوگوں	-426
▁والے	-427
▁کیوں	-428
▁ايی	-429
▁انسان	-430
ندگی	-431
ثر	-432
شت	-433
▁سکتا	-434
▁سیاست	-435
▁کیس	-436
احب	-437
ریف	-438
▁مذ	-439
▁صاحب	-440
▁میرے	-441
▁از	-442
نٹ	-443
▁حس	-444
▁اٹھ	-445
▁کرو	-446
▁اپنا	-447
▁سیاسی	-448
▁ضرورت	-449
بت	-450
▁جی	-451
▁اچھ	-452
▁فر	-453
▁لے	-454
وع	-455
▁مسلم	-456
▁ہمیں	-457
یں۔	-458
▁اگ	-459
▁ہماری	-460
▁ہوگ	-461
مل	-462
رہ	-463
▁طور	-464
▁مگر	-465
یات	-466
▁ریا	-467
▁دوسرے	-468
اج	-469
▁بھر	-470
▁مخت	-471
▁ایسے	-472
▁بڑھ	-473
مت	-474
▁ايے	-475
▁گھر	-476
▁استع	-477
▁خلاف	-478
امل	-479
30	-480
▁کل	-481
▁شکست	-482
▁ھ	-483
ايل	-484
ايم	-485
▁انگ	-486
▁اي	-487
▁سوال	-488
▁گر	-489
▁خود	-490
یال	-491
رار	-492
▁بح	-493
▁بند	-494
اریخ	-495
▁چیز	-496
▁امریک	-497
روں	-498
▁مص	-499
صہ	-500
عت	-501
▁،	-502
▁کرکٹ	-503
▁تاریخ	-504
▁بنا	-505
دا	-506
▁انڈ	-507
▁سامنے	-508
▁نہیں۔	-509
گہ	-510
▁کھی	-511
▁زندگی	-512
▁دے	-513
▁جہاں	-514
▁صورت	-515
▁استعمال	-516
ين	-517
▁جنگ	-518
▁کون	-519
لڈ	-520
▁عد	-521
▁علم	-522
▁ختم	-523
▁کرا	-524
▁وزیر	-525
لیم	-526
▁قومی	-527
▁بس	-528
▁ٹیسٹ	-529
فت	-530
▁مک	-531
لاح	-532
▁تق	-533
▁خط	-534
▁فو	-535
لف	-536
ینی	-537
سپ	-538
لان	-539
▁انہیں	-540
▁ریاست	-541
▁پیدا	-542
وز	-543
▁شا	-544
▁بین	-545
▁جاتے	-546
▁قان	-547
▁وجہ	-548
▁خیال	-549
با	-550
▁نواز	-551
نج	-552
▁گھ	-553
نس	-554
▁والی	-555
▁بال	-556
▁گی۔	-557
یب	-558
▁ری	-559
▁مذہ	-560
یہ	-561
یکس	-562
▁کھلا	-563
وال	-564
▁شر	-565
▁اند	-566
وڑ	-567
▁نک	-568
ٹس	-569
چی	-570
قہ	-571
▁تی	-572
▁شہ	-573
▁جگہ	-574
▁مہ	-575
▁بارے	-576
▁جاتی	-577
▁دکھ	-578
▁میری	-579
▁نم	-580
ٹریل	-581
▁مار	-582
▁عو	-583
▁ٹی	-584
▁پیش	-585
▁صح	-586
▁ڈال	-587
▁کرے	-588
▁جايیں	-589
▁علی	-590
▁مسي	-591
▁کمپ	-592
▁مختلف	-593
لو	-594
انوں	-595
▁عام	-596
▁کیسے	-597
▁بھارت	-598
▁را	-599
▁ایش	-600
▁بیٹھ	-601
▁دیتے	-602
▁گاڑی	-603
▁موجود	-604
جو	-605
نوں	-606
▁گو	-607
اروں	-608
▁تین	-609
بہ	-610
▁تن	-611
▁دھ	-612
اتی	-613
لس	-614
مد	-615
▁ایم	-616
▁نيے	-617
▁وہاں	-618
اصل	-619
▁حاصل	-620
ایا	-621
شی	-622
لط	-623
ورٹ	-624
▁مج	-625
▁وس	-626
▁روا	-627
▁گے۔	-628
▁میرا	-629
بو	-630
▁بڑے	-631
بان	-632
▁روز	-633
▁عمل	-634
▁غیر	-635
▁پھ	-636
▁باز	-637
▁کرد	-638
▁شع	-639
▁پار	-640
▁پاس	-641
▁تمام	-642
لز	-643
کو	-644
اتے	-645
▁کش	-646
▁ایا	-647
▁سکتی	-648
▁سکتے	-649
▁قانون	-650
عو	-651
یمت	-652
▁سپ	-653
▁قب	-654
▁میڈ	-655
▁شریف	-656
سک	-657
شہ	-658
▁سفر	-659
▁ملا	-660
ظم	-661
اہور	-662
▁لاہور	-663
▁کھلاڑی	-664
70	-665
ير	-666
▁پور	-667
▁دوست	-668
ہوں	-669
▁جیسے	-670
ستہ	-671
▁تص	-672
▁مست	-673
رت	-674
ابل	-675
▁اض	-676
▁اق	-677
▁لکھ	-678
▁کمی	-679
▁کت	-680
▁رنگ	-681
▁تعلق	-682
ونی	-683
▁وہی	-684
▁اباد	-685
14	-686
59	-687
93	-688
اير	-689
▁ما	-690
▁بڑی	-691
▁نق	-692
▁فوج	-693
▁قیمت	-694
▁معام	-695
27	-696
65	-697
be	-698
ur	-699
ضی	-700
یاد	-701
▁عال	-702
▁معاش	-703
▁ڈی	-704
▁جمہ	-705
▁خوب	-706
▁ہاتھ	-707
وے	-708
▁شو	-709
▁میچ	-710
▁لیگ	-711
▁کراچی	-712
اہد	-713
▁حق	-714
▁جاری	-715
▁مسيلہ	-716
▁انتظ	-717
اتا	-718
▁اچ	-719
▁واپ	-720
▁اچھا	-721
▁بدل	-722
▁متع	-723
خص	-724
زم	-725
▁تج	-726
▁پرو	-727
▁دوسروں	-728
▁بلکہ	-729
▁جواب	-730
▁عوام	-731
▁رکھتا	-732
کن	-733
ریب	-734
▁مف	-735
▁موقع	-736
▁دونوں	-737
▁منظ	-738
▁مشکل	-739
▁ورلڈ	-740
ابق	-741
باب	-742
▁مم	-743
▁نيی	-744
▁ظ	-745
کار	-746
▁علاق	-747
لب	-748
غیر	-749
▁جل	-750
لینڈ	-751
▁مان	-752
▁کيی	-753
▁کہاں	-754
قین	-755
▁مث	-756
▁ناک	-757
▁یاد	-758
▁افری	-759
▁والا	-760
▁کرتی	-761
▁ڈھ	-762
ماعت	-763
▁اضاف	-764
▁قرار	-765
ورو	-766
▁خر	-767
▁ارد	-768
▁اسٹریل	-769
گو	-770
▁نظام	-771
▁باہر	-772
▁ٹھیک	-773
▁کھیل	-774
▁کامیا	-775
بال	-776
یوں	-777
▁کن	-778
▁بیٹ	-779
▁مدد	-780
▁قدر	-781
▁قوم	-782
▁نکل	-783
▁چیم	-784
نہ	-785
سوس	-786
▁اگے	-787
▁چند	-788
▁تبدی	-789
▁حصہ	-790
▁کوش	-791
▁کہیں	-792
سٹ	-793
تان	-794
▁جانے	-795
▁فاين	-796
▁جماعت	-797
▁چاہیے	-798
▁بت	-799
▁جھ	-800
▁اقت	-801
▁جاي	-802
▁سما	-803
▁انداز	-804
▁سیریز	-805
▁چی	-806
▁قايم	-807
▁اعلان	-808
▁کیے	-809
▁کوشش	-810
▁کمپنی	-811
دم	-812
اہم	-813
▁لگا	-814
▁شکار	-815
▁چھوڑ	-816
لوم	-817
▁فت	-818
▁مض	-819
▁ھے	-820
▁پری	-821
▁ابھی	-822
▁شامل	-823
الت	-824
▁سیک	-825
▁کہہ	-826
▁دینے	-827
▁مکمل	-828
▁واقع	-829
▁حالات	-830
▁کردیا	-831
▁امریکہ	-832
▁لم	-833
▁رات	-834
▁دان	-835
▁میڈیا	-836
▁انے	-837
▁معی	-838
▁چین	-839
▁بینک	-840
▁دیتا	-841
ڑا	-842
انچ	-843
▁چھٹ	-844
▁ایسی	-845
▁خواہ	-846
▁فاينل	-847
ڈر	-848
▁کتا	-849
▁ترین	-850
▁رہتا	-851
اع	-852
دید	-853
مان	-854
میر	-855
▁عر	-856
▁منا	-857
▁پول	-858
پی	-859
▁مخ	-860
▁تیار	-861
▁پرند	-862
▁بو	-863
▁بہتر	-864
▁بیان	-865
▁ث	-866
ارڈ	-867
▁ڈر	-868
مالک	-869
▁بجلی	-870
▁عمران	-871
▁ممالک	-872
▁مسلمان	-873
▁ایف	-874
اخ	-875
زی	-876
ہا	-877
▁خری	-878
▁ڈاک	-879
▁ہمارا	-880
کش	-881
▁احت	-882
▁واپس	-883
▁انہوں	-884
سر	-885
▁دہ	-886
▁پوری	-887
▁دوسری	-888
▁معاملہ	-889
فاظ	-890
وریت	-891
▁مطال	-892
▁ہوگا	-893
▁باتیں	-894
ايد	-895
▁اخت	-896
▁ہوا۔	-897
▁شخص	-898
▁ہند	-899
▁ادمی	-900
▁شاید	-901
بار	-902
▁اظ	-903
میان	-904
▁امی	-905
▁چکے	-906
▁کہتے	-907
▁درمیان	-908
ايش	-909
▁نی	-910
احول	-911
▁بڑا	-912
▁ماہ	-913
▁یوں	-914
▁ماحول	-915
چسپ	-916
ہار	-917
▁پو	-918
▁دلچسپ	-919
▁متعلق	-920
ڑے	-921
يیں	-922
▁ڈے	-923
▁تھیں	-924
باد	-925
▁اے	-926
رانس	-927
▁ویس	-928
▁مزید	-929
▁جمہوریت	-930
عے	-931
وہ	-932
▁سچ	-933
▁جیت	-934
▁خیر	-935
▁نتی	-936
▁لگتا	-937
▁ایشیا	-938
پر	-939
▁فط	-940
امات	-941
▁خاص	-942
▁مذہب	-943
بات	-944
▁زبان	-945
▁عالمی	-946
▁حل	-947
▁ہاں	-948
▁اندر	-949
▁مسايل	-950
بل	-951
▁بک	-952
▁لڑ	-953
پورٹ	-954
▁اتے	-955
▁حکم	-956
▁قوت	-957
▁پنج	-958
▁اداک	-959
▁رايے	-960
وا	-961
▁اش	-962
ابند	-963
▁اسٹ	-964
▁خام	-965
▁معم	-966
ہی	-967
▁تش	-968
ايیک	-969
خلاف	-970
▁اصل	-971
▁چار	-972
▁مطابق	-973
▁اقتدار	-974
اط	-975
زا	-976
وص	-977
خاب	-978
▁باقی	-979
▁محسوس	-980
▁پابند	-981
▁انتخاب	-982
▁رک	-983
▁خوف	-984
▁ساز	-985
▁قسم	-986
▁منص	-987
▁پانچ	-988
▁کردی	-989
اڑ	-990
بح	-991
شل	-992
ادر	-993
حال	-994
▁ادا	-995
▁شہر	-996
▁اسٹی	-997
▁موسم	-998
▁گیا۔	-999
▁یقین	-1000
▁زمباب	-1001
اکی	-1002
کرد	-1003
▁غلط	-1004
▁نیا	-1005
▁اچھی	-1006
▁چیمپ	-1007
▁گرین	-1008
امد	-1009
▁رس	-1010
ارتی	-1011
یاتی	-1012
▁کان	-1013
▁دوسرا	-1014
عی	-1015
▁تا	-1016
▁حی	-1017
▁مغ	-1018
▁اتی	-1019
▁دیں	-1020
▁اردو	-1021
▁دورہ	-1022
▁تعلیم	-1023
▁روایت	-1024
▁معلوم	-1025
▁کپتان	-1026
▁انگریز	-1027
جن	-1028
کت	-1029
راد	-1030
▁نش	-1031
ونکہ	-1032
▁علا	-1033
▁مری	-1034
▁کتاب	-1035
اگ	-1036
ارف	-1037
▁احس	-1038
▁باع	-1039
▁بول	-1040
کردگی	-1041
▁ترقی	-1042
▁ٹیکس	-1043
▁ضروری	-1044
▁پنجاب	-1045
▁کاروب	-1046
عودی	-1047
▁بیم	-1048
▁جاپ	-1049
▁ریس	-1050
▁دیگر	-1051
▁پہلا	-1052
▁اضافہ	-1053
▁سعودی	-1054
▁فرانس	-1055
صے	-1056
عہ	-1057
قیق	-1058
▁اعت	-1059
▁اہم	-1060
▁پڑھ	-1061
▁گزر	-1062
▁دیکھا	-1063
▁کارکردگی	-1064
پے	-1065
▁'	-1066
▁عمر	-1067
▁پیپ	-1068
▁مطلب	-1069
ڈی	-1070
یدہ	-1071
▁اغ	-1072
▁شی	-1073
▁چکا	-1074
▁خراب	-1075
▁ہاکی	-1076
▁پارٹی	-1077
▁شہری	-1078
▁کافی	-1079
▁چیزوں	-1080
اق	-1081
تھ	-1082
دور	-1083
میت	-1084
وبی	-1085
ورس	-1086
▁بحث	-1087
▁تیل	-1088
▁ذری	-1089
▁باعث	-1090
▁عدالت	-1091
طہ	-1092
▁قد	-1093
▁امت	-1094
▁خبر	-1095
▁صبح	-1096
▁یون	-1097
▁دینا	-1098
▁مذہبی	-1099
▁زمبابوے	-1100
▁صورتحال	-1101
حان	-1102
▁اخر	-1103
▁خار	-1104
▁سور	-1105
▁گیم	-1106
▁بغیر	-1107
▁کیخلاف	-1108
بھ	-1109
رز	-1110
اکھ	-1111
▁ایل	-1112
▁این	-1113
▁شام	-1114
▁کھل	-1115
▁ہوج	-1116
▁اعظم	-1117
▁اواز	-1118
▁پیپلز	-1119
▁ڈاکٹر	-1120
63	-1121
بن	-1122
تہ	-1123
ضح	-1124
ہے	-1125
▁حقی	-1126
▁دار	-1127
▁فکر	-1128
▁انکھ	-1129
▁جیسا	-1130
▁تحقیق	-1131
▁کردار	-1132
▁تبدیلی	-1133
▁چیمپين	-1134
▁کامیاب	-1135
▁اسٹریلیا	-1136
پا	-1137
کان	-1138
▁بز	-1139
▁شب	-1140
▁فض	-1141
▁دست	-1142
▁گرد	-1143
▁خوبص	-1144
▁کہنا	-1145
▁ہوگی	-1146
ٹا	-1147
ثیت	-1148
یشہ	-1149
یادت	-1150
▁بتا	-1151
لاقات	-1152
▁اکثر	-1153
▁قیادت	-1154
▁پولیس	-1155
▁ہمیشہ	-1156
یح	-1157
▁خدا	-1158
▁جاسک	-1159
▁رہتی	-1160
▁ٹھنڈ	-1161
▁کھانا	-1162
طی	-1163
صاف	-1164
▁گل	-1165
▁تیز	-1166
▁حسن	-1167
▁دین	-1168
▁الیک	-1169
▁حوال	-1170
▁منظر	-1171
▁پانی	-1172
▁پیچھ	-1173
▁انتظار	-1174
▁راہ	-1175
▁چکی	-1176
▁امید	-1177
▁سلام	-1178
▁عملی	-1179
▁پورا	-1180
66	-1181
76	-1182
ٹو	-1183
ھے	-1184
ايٹ	-1185
ریہ	-1186
ندہ	-1187
رمین	-1188
▁تیس	-1189
▁اغاز	-1190
▁ظاہر	-1191
▁علام	-1192
▁علما	-1193
▁نکال	-1194
▁گيی۔	-1195
▁جنوبی	-1196
▁حیثیت	-1197
▁اسلامی	-1198
▁ملاقات	-1199
▁رق	-1200
▁اثر	-1201
▁ذمہ	-1202
▁صحت	-1203
▁جانا	-1204
▁جانب	-1205
▁بھايی	-1206
12	-1207
24	-1208
32	-1209
49	-1210
50	-1211
92	-1212
فظ	-1213
نت	-1214
730	-1215
اوس	-1216
روف	-1217
ضوع	-1218
ندر	-1219
▁جذ	-1220
▁لیں	-1221
▁پیر	-1222
▁اچھے	-1223
▁راست	-1224
▁رکھا	-1225
▁ممکن	-1226
▁نتیجہ	-1227
پن	-1228
غان	-1229
نام	-1230
▁حض	-1231
▁تمہ	-1232
▁ریک	-1233
▁عرب	-1234
▁ونڈ	-1235
▁قران	-1236
▁پہلی	-1237
▁اظہار	-1238
▁چاہتے	-1239
▁انگلینڈ	-1240
04	-1241
09	-1242
25	-1243
29	-1244
40	-1245
58	-1246
64	-1247
71	-1248
_2	-1249
af	-1250
al	-1251
cb	-1252
ce	-1253
cf	-1254
co	-1255
de	-1256
ed	-1257
em	-1258
hi	-1259
ie	-1260
mm	-1261
oi	-1262
rt	-1263
رل	-1264
من	-1265
وش	-1266
▁2	-1267
▁9	-1268
▁f	-1269
▁t	-1270
045	-1271
170	-1272
257	-1273
275	-1274
278	-1275
305	-1276
429	-1277
449	-1278
512	-1279
708	-1280
768	-1281
792	-1282
938	-1283
ale	-1284
fcb	-1285
mmo	-1286
▁co	-1287
▁ur	-1288
▁فٹ	-1289
▁ون	-1290
5865	-1291
6332	-1292
6459	-1293
6630	-1294
7114	-1295
hirt	-1296
oice	-1297
انیہ	-1298
▁fem	-1299
14275	-1300
30550	-1301
▁حسین	-1302
▁خرید	-1303
449045	-1304
_26630	-1305
hirtie	-1306
▁commo	-1307
▁female	-1308
30550730	-1309
51214275	-1310
▁thirtie	-1311
586530550730	-1312
ادہ	-1313
ستی	-1314
▁طو	-1315
▁وی	-1316
▁فار	-1317
▁لگے	-1318
▁ضرور	-1319
▁تعالی	-1320
چا	-1321
ڑک	-1322
الیس	-1323
▁دیر	-1324
▁ذکر	-1325
▁عاد	-1326
▁مال	-1327
▁رہیں	-1328
▁ماضی	-1329
▁مستق	-1330
▁مفاد	-1331
▁انصاف	-1332
لاش	-1333
▁دع	-1334
▁باو	-1335
▁شاہ	-1336
▁نیو	-1337
▁چلے	-1338
▁اتنا	-1339
▁تلاش	-1340
▁رہتے	-1341
▁مثال	-1342
▁مقاب	-1343
▁افراد	-1344
▁افغان	-1345
تر	-1346
ٹن	-1347
اور	-1348
▁غم	-1349
▁نس	-1350
▁الگ	-1351
▁اہل	-1352
▁سنا	-1353
▁سارے	-1354
▁واضح	-1355
▁ہاوس	-1356
▁رکھتے	-1357
زہ	-1358
جیب	-1359
▁رح	-1360
رافی	-1361
▁اتا	-1362
املات	-1363
▁قابل	-1364
▁بالکل	-1365
▁تحریک	-1366
▁تھیں۔	-1367
▁معاملات	-1368
شتہ	-1369
▁سط	-1370
ايدہ	-1371
▁روش	-1372
▁سات	-1373
▁سڑک	-1374
▁محض	-1375
▁پھی	-1376
▁اتنی	-1377
▁کرنی	-1378
▁گزار	-1379
▁ادارے	-1380
▁ازادی	-1381
▁خواہش	-1382
▁موضوع	-1383
▁دکھايی	-1384
کس	-1385
▁ذہ	-1386
▁مظ	-1387
▁روک	-1388
▁فری	-1389
▁مرح	-1390
▁بچوں	-1391
▁باوجود	-1392
▁بیماری	-1393
▁ریکارڈ	-1394
رض	-1395
اقت	-1396
نوع	-1397
ینس	-1398
▁عق	-1399
▁بنگ	-1400
▁جرم	-1401
▁سطح	-1402
▁پیس	-1403
▁یور	-1404
▁احمد	-1405
▁بازی	-1406
▁زمین	-1407
▁گيے۔	-1408
▁بنانے	-1409
▁ذریعے	-1410
▁رپورٹ	-1411
▁رکھنے	-1412
▁چاہتا	-1413
▁کہانی	-1414
▁کاروبار	-1415
داد	-1416
راز	-1417
لیٹ	-1418
گار	-1419
▁لا	-1420
▁پک	-1421
▁باد	-1422
▁دوب	-1423
▁سرف	-1424
▁سکے	-1425
▁فرو	-1426
▁ٹور	-1427
▁جارہ	-1428
▁کتنے	-1429
▁ناکام	-1430
جا	-1431
صد	-1432
▁0	-1433
ولی	-1434
ٹرو	-1435
▁سہ	-1436
▁چو	-1437
تیار	-1438
▁طاقت	-1439
▁محمد	-1440
▁مضبو	-1441
▁حقیقت	-1442
▁فٹبال	-1443
▁افریقہ	-1444
وظ	-1445
ڑھ	-1446
سیم	-1447
▁حر	-1448
▁رج	-1449
▁ہز	-1450
▁یو	-1451
▁روح	-1452
▁مرت	-1453
ورونا	-1454
▁عجیب	-1455
▁گرمی	-1456
▁اصلاح	-1457
▁جنہیں	-1458
▁معیشت	-1459
عض	-1460
فہ	-1461
اکہ	-1462
▁عب	-1463
ترین	-1464
▁الح	-1465
▁سنگ	-1466
▁صدر	-1467
▁فون	-1468
▁متح	-1469
▁منہ	-1470
▁مید	-1471
▁ہمت	-1472
▁اخری	-1473
▁تاہم	-1474
▁قبول	-1475
▁بنیاد	-1476
▁منصوب	-1477
▁والوں	-1478
▁کشمیر	-1479
ايع	-1480
جيے	-1481
دان	-1482
لوں	-1483
ینہ	-1484
▁جم	-1485
▁باب	-1486
▁داری	-1487
▁فیفا	-1488
▁کیونکہ	-1489
جر	-1490
دت	-1491
زد	-1492
دود	-1493
شنل	-1494
وار	-1495
کیٹ	-1496
ايیڈ	-1497
سٹری	-1498
ہايی	-1499
یادی	-1500
▁دعو	-1501
▁سید	-1502
▁شوق	-1503
▁پڑے	-1504
▁پیغ	-1505
▁گیس	-1506
▁پورے	-1507
▁پھول	-1508
▁گیمز	-1509
▁ہندو	-1510
▁جاپان	-1511
▁میدان	-1512
▁پیچھے	-1513
▁کاربن	-1514
▁بنیادی	-1515
▁انگریزی	-1516
اہی	-1517
یکٹ	-1518
▁فن	-1519
▁فرق	-1520
▁کیم	-1521
▁یار	-1522
▁ترتی	-1523
▁شاہد	-1524
▁لیتے	-1525
▁لینڈ	-1526
▁مقدم	-1527
▁بھارتی	-1528
▁بہترین	-1529
بے	-1530
مب	-1531
گز	-1532
لاں	-1533
ڈیو	-1534
▁بلا	-1535
▁لمح	-1536
▁نیک	-1537
▁گرو	-1538
▁بھول	-1539
▁جنرل	-1540
▁سرما	-1541
▁ویسٹ	-1542
▁یونی	-1543
▁بنگلہ	-1544
▁حوالے	-1545
▁سماجی	-1546
▁ونڈوز	-1547
▁وزیراع	-1548
ونٹ	-1549
▁عظ	-1550
▁بچے	-1551
▁داي	-1552
▁وفا	-1553
▁کرپ	-1554
▁کمز	-1555
لاحیت	-1556
▁روپے	-1557
▁لاکھ	-1558
▁ٹايم	-1559
▁راستہ	-1560
▁پابندی	-1561
ازہ	-1562
الب	-1563
ربی	-1564
ریر	-1565
▁خص	-1566
▁عز	-1567
▁لہ	-1568
▁وط	-1569
انوی	-1570
▁انع	-1571
▁بعض	-1572
▁سخت	-1573
▁ویب	-1574
▁کیف	-1575
▁اخلا	-1576
▁جبکہ	-1577
▁محبت	-1578
▁بجايے	-1579
▁فايدہ	-1580
▁چھٹايی	-1581
ظر	-1582
انک	-1583
ھار	-1584
▁تحت	-1585
▁درد	-1586
▁چلا	-1587
▁بنایا	-1588
▁دیکھی	-1589
▁سرفراز	-1590
▁صلاحیت	-1591
جے	-1592
نم	-1593
وق	-1594
ٹرز	-1595
▁جت	-1596
امیہ	-1597
گرام	-1598
▁ثاب	-1599
▁لاز	-1600
▁وطن	-1601
▁جدید	-1602
▁عادت	-1603
▁پايے	-1604
▁انڈیز	-1605
▁بدترین	-1606
▁سرمایہ	-1607
▁مستقبل	-1608
▁گاڑیوں	-1609
یسر	-1610
▁اط	-1611
کاری	-1612
▁رقم	-1613
▁شاع	-1614
▁اعلی	-1615
▁سیاح	-1616
▁واير	-1617
▁ڈايی	-1618
▁کورونا	-1619
▁ہاتھوں	-1620
لیل	-1621
▁سا	-1622
▁طب	-1623
▁نص	-1624
▁چا	-1625
فاظت	-1626
▁طری	-1627
▁قیا	-1628
▁مول	-1629
▁ووٹ	-1630
▁کی۔	-1631
▁تصور	-1632
▁رکھے	-1633
▁سوشل	-1634
▁تقسیم	-1635
▁دوران	-1636
▁روشنی	-1637
▁اختلاف	-1638
▁اخلاقی	-1639
▁یونیورس	-1640
حک	-1641
ریت	-1642
یدی	-1643
▁جز	-1644
▁شم	-1645
▁لط	-1646
▁دھو	-1647
▁کوچ	-1648
▁ہو۔	-1649
▁خواب	-1650
▁خوشی	-1651
▁مریض	-1652
▁ملکی	-1653
▁جانور	-1654
▁سامان	-1655
▁کرپشن	-1656
▁افریدی	-1657
نز	-1658
ٹے	-1659
▁"	-1660
تال	-1661
جات	-1662
لیز	-1663
ولت	-1664
ہور	-1665
یتی	-1666
یشن	-1667
▁دب	-1668
▁جسے	-1669
▁جلد	-1670
▁سزا	-1671
▁مجم	-1672
▁مقد	-1673
▁ٹام	-1674
▁کھو	-1675
▁ثابت	-1676
▁فطری	-1677
▁لیتا	-1678
▁مہنگ	-1679
▁میں۔	-1680
▁ٹینس	-1681
▁مغربی	-1682
▁امریکی	-1683
▁انتظامیہ	-1684
▁وزیراعظم	-1685
کری	-1686
▁لٹ	-1687
▁حیر	-1688
▁ہسپ	-1689
▁حکمت	-1690
▁لینا	-1691
▁ڈرام	-1692
▁امکان	-1693
▁بتایا	-1694
▁وايرس	-1695
▁دوبارہ	-1696
تل	-1697
سو	-1698
مق	-1699
▁‘	-1700
اشت	-1701
اون	-1702
باح	-1703
بول	-1704
ورڈ	-1705
▁نر	-1706
▁انج	-1707
▁تیر	-1708
▁جسم	-1709
▁منت	-1710
▁مند	-1711
▁چان	-1712
▁امیر	-1713
▁انٹر	-1714
▁بنتی	-1715
▁دعوت	-1716
▁گزرے	-1717
▁گيیں	-1718
▁الفاظ	-1719
▁انتہا	-1720
▁ایمان	-1721
▁تمہیں	-1722
▁جانتا	-1723
▁مجموع	-1724
▁مضبوط	-1725
▁سوالات	-1726
▁مارکیٹ	-1727
زل	-1728
لسل	-1729
لمان	-1730
▁کھانے	-1731
▁ہوگیا	-1732
▁کھلاڑیوں	-1733
قف	-1734
ادث	-1735
دال	-1736
رات	-1737
قات	-1738
اوار	-1739
ریشن	-1740
يیں۔	-1741
▁امر	-1742
▁انھ	-1743
▁برس	-1744
▁برط	-1745
▁چیي	-1746
▁ہار	-1747
▁اوپن	-1748
▁دیتی	-1749
▁سماج	-1750
▁شعور	-1751
▁پریش	-1752
▁گاوں	-1753
▁ہونی	-1754
▁احساس	-1755
▁بحران	-1756
▁علاوہ	-1757
▁فیصلے	-1758
▁معاشی	-1759
▁مقدمہ	-1760
▁پرانے	-1761
▁کیفیت	-1762
▁اختیار	-1763
▁پروگرام	-1764
▁چیيرمین	-1765
▁انتخابات	-1766
ہم	-1767
الو	-1768
دوں	-1769
قلا	-1770
لیہ	-1771
یسک	-1772
▁یک	-1773
تاثر	-1774
▁نقص	-1775
▁حالت	-1776
▁اسانی	-1777
▁انقلا	-1778
▁جايے۔	-1779
▁متاثر	-1780
الا	-1781
بتہ	-1782
ورا	-1783
▁اٹ	-1784
▁زب	-1785
▁سف	-1786
▁سٹ	-1787
▁وڈ	-1788
شریف	-1789
ورتی	-1790
▁اسک	-1791
▁عرو	-1792
▁کا۔	-1793
▁گرم	-1794
▁گفت	-1795
▁ادھر	-1796
▁الحق	-1797
▁رہی۔	-1798
▁سورج	-1799
▁فتوی	-1800
▁قدرت	-1801
▁پوچھ	-1802
▁ڈالر	-1803
▁اقبال	-1804
▁البتہ	-1805
▁ترتیب	-1806
▁راستے	-1807
▁فلموں	-1808
▁متحدہ	-1809
▁دیکھنے	-1810
▁معاشرے	-1811
▁کامیابی	-1812
▁خوبصورتی	-1813
▁نوازشریف	-1814
صر	-1815
قاد	-1816
▁اصف	-1817
▁داخ	-1818
▁دعا	-1819
▁زیر	-1820
▁محف	-1821
▁مقر	-1822
▁پڑی	-1823
▁جنگل	-1824
▁جانتے	-1825
▁علاقہ	-1826
▁انسانی	-1827
ذا	-1828
وڈ	-1829
ابر	-1830
جان	-1831
عنی	-1832
لاس	-1833
ویں	-1834
▁رخ	-1835
▁رد	-1836
▁عہ	-1837
وریا	-1838
▁برت	-1839
▁برد	-1840
▁خاک	-1841
▁دھر	-1842
▁سنی	-1843
▁سے۔	-1844
▁کوي	-1845
▁گول	-1846
▁تاکہ	-1847
▁خصوص	-1848
▁صحیح	-1849
▁عالم	-1850
▁عرصے	-1851
▁نوجو	-1852
▁گویا	-1853
▁یعنی	-1854
▁اسٹیٹ	-1855
▁حفاظت	-1856
▁رکھنا	-1857
▁فراہم	-1858
▁ٹرافی	-1859
▁الیکشن	-1860
▁اندازہ	-1861
▁یونیورسٹی	-1862
سب	-1863
ايق	-1864
ندھ	-1865
▁امن	-1866
▁بجٹ	-1867
▁خاط	-1868
▁سٹی	-1869
▁سین	-1870
▁مرے	-1871
▁پڑا	-1872
▁رہا۔	-1873
▁شادی	-1874
▁وسلم	-1875
▁کروں	-1876
▁سلمان	-1877
▁مصنوع	-1878
▁نقصان	-1879
▁پرندے	-1880
▁انکھوں	-1881
جد	-1882
شا	-1883
جاج	-1884
رفت	-1885
شیا	-1886
ویر	-1887
▁خد	-1888
▁فل	-1889
▁ٹو	-1890
▁پل	-1891
▁ہل	-1892
▁اکس	-1893
▁باک	-1894
▁جاو	-1895
▁دیش	-1896
▁غور	-1897
▁قبض	-1898
▁مشر	-1899
▁پچھ	-1900
▁کرن	-1901
▁ایکس	-1902
▁بلند	-1903
▁بورڈ	-1904
▁درجہ	-1905
▁دیا۔	-1906
▁دینی	-1907
▁ساری	-1908
▁قدیم	-1909
▁لگتی	-1910
▁ماہر	-1911
▁مثبت	-1912
▁مخال	-1913
▁مزاج	-1914
▁یورپ	-1915
▁روانہ	-1916
▁سٹریل	-1917
▁مزدور	-1918
▁پالیس	-1919
▁گزشتہ	-1920
▁احتجاج	-1921
▁اداکار	-1922
▁خاندان	-1923
▁افغانستان	-1924
لش	-1925
راف	-1926
ربہ	-1927
روس	-1928
▁خال	-1929
▁صلی	-1930
▁پہچ	-1931
ارفین	-1932
▁دلیل	-1933
▁سنبھ	-1934
▁ملنے	-1935
▁ڈیسک	-1936
▁ہزار	-1937
▁باتوں	-1938
▁تبدیل	-1939
▁تعداد	-1940
▁معمول	-1941
▁جاسکتا	-1942
▁صارفین	-1943
▁علاقوں	-1944
اظ	-1945
لت	-1946
ارم	-1947
سٹم	-1948
کیل	-1949
یرو	-1950
▁صد	-1951
▁صف	-1952
▁صن	-1953
▁لن	-1954
اہوں	-1955
▁حلق	-1956
▁زرد	-1957
▁سلس	-1958
▁مرک	-1959
▁ملی	-1960
وزیشن	-1961
▁اسان	-1962
▁بنتا	-1963
▁سربر	-1964
▁لیڈر	-1965
▁وجود	-1966
▁پہاڑ	-1967
▁اخبار	-1968
▁ریلیز	-1969
▁مرتبہ	-1970
▁مشہور	-1971
▁ملازم	-1972
▁کمپیو	-1973
▁نوجوان	-1974
▁اکسايیڈ	-1975
▁اسٹریلین	-1976
فس	-1977
افی	-1978
قید	-1979
وشی	-1980
▁دا	-1981
▁چن	-1982
جودہ	-1983
ونٹی	-1984
▁شان	-1985
▁ملے	-1986
▁چڑھ	-1987
▁بزنس	-1988
▁دیدی	-1989
▁فطرت	-1990
▁مقرر	-1991
▁منزل	-1992
▁میٹھ	-1993
▁پلان	-1994
▁چاہے	-1995
▁تنقید	-1996
▁سمجھا	-1997
▁کبھار	-1998
▁کمزور	-1999
▁موجودہ	-2000
اض	-2001
سن	-2002
قا	-2003
ايب	-2004
ايج	-2005
بیت	-2006
یمی	-2007
▁''	-2008
▁خز	-2009
▁دش	-2010
▁وع	-2011
▁جنم	-2012
▁درو	-2013
▁سبب	-2014
▁لفظ	-2015
▁ویل	-2016
▁ازاد	-2017
▁توجہ	-2018
▁حادث	-2019
▁خارج	-2020
▁شرکت	-2021
▁فلاں	-2022
▁قریب	-2023
▁قیام	-2024
▁نماي	-2025
▁ورنہ	-2026
▁چاند	-2027
▁چھوٹ	-2028
▁گھنٹ	-2029
▁برابر	-2030
▁فروخت	-2031
▁مصباح	-2032
▁مقبول	-2033
▁چاہيے	-2034
▁انڈسٹری	-2035
▁ہندوستان	-2036
چہ	-2037
تاد	-2038
جیح	-2039
▁چک	-2040
▁دفا	-2041
▁ٹوٹ	-2042
▁ہدا	-2043
▁رحمت	-2044
▁لینے	-2045
▁کتنا	-2046
▁استاد	-2047
▁ترجیح	-2048
▁پرانی	-2049
▁انعقاد	-2050
▁خاموشی	-2051
رڈ	-2052
وچ	-2053
کپ	-2054
انگ	-2055
ریٹ	-2056
ناہ	-2057
ٹرن	-2058
ٹرک	-2059
▁اذ	-2060
▁رش	-2061
▁زخ	-2062
ابطہ	-2063
ترال	-2064
قرار	-2065
▁اجت	-2066
▁ایر	-2067
▁ایو	-2068
▁سنچ	-2069
▁شدت	-2070
▁شری	-2071
▁فرد	-2072
▁لوٹ	-2073
▁نور	-2074
▁پتہ	-2075
▁کلب	-2076
▁ارام	-2077
▁بارش	-2078
▁براہ	-2079
▁بھٹو	-2080
▁توقع	-2081
▁تیزی	-2082
▁حضرت	-2083
▁درخت	-2084
▁درست	-2085
▁رہنے	-2086
▁سابق	-2087
▁سونے	-2088
▁سیکھ	-2089
▁عروج	-2090
▁غریب	-2091
▁موقف	-2092
▁میسر	-2093
▁کررہ	-2094
▁فلمیں	-2095
▁مسلسل	-2096
▁چترال	-2097
▁گفتگو	-2098
▁معمولی	-2099
▁پیداوار	-2100
۔۔	-2101
دین	-2102
ٹرول	-2103
▁اقد	-2104
▁جون	-2105
▁سری	-2106
▁طلب	-2107
▁فتح	-2108
▁جلدی	-2109
▁خاطر	-2110
▁علاج	-2111
▁لکھا	-2112
▁محنت	-2113
▁بیٹھے	-2114
▁جايزہ	-2115
▁زمانہ	-2116
▁ہدایت	-2117
▁تمہاری	-2118
اپ	-2119
دھ	-2120
لک	-2121
انس	-2122
مود	-2123
▁بخ	-2124
▁حص	-2125
▁دس	-2126
یدگی	-2127
▁ارب	-2128
▁افو	-2129
▁الز	-2130
▁امد	-2131
▁انا	-2132
▁بری	-2133
▁تنا	-2134
▁روس	-2135
▁زور	-2136
▁صاف	-2137
▁عزم	-2138
▁ماب	-2139
▁ماس	-2140
▁متو	-2141
▁دانش	-2142
▁زندہ	-2143
▁ضايع	-2144
▁طلاق	-2145
▁لمبی	-2146
▁مسجد	-2147
▁مقبو	-2148
▁بنايے	-2149
▁بیٹنگ	-2150
▁تحریر	-2151
▁نیوزی	-2152
▁واقعہ	-2153
▁اداروں	-2154
▁برداشت	-2155
▁تاریخی	-2156
▁تعلقات	-2157
▁جمہوری	-2158
▁روایتی	-2159
▁سرکاری	-2160
▁معاملے	-2161
▁مقابلے	-2162
▁ناکامی	-2163
صل	-2164
ختی	-2165
▁حم	-2166
اتین	-2167
جنسی	-2168
▁برا	-2169
▁تھو	-2170
▁خطر	-2171
▁سکا	-2172
▁چول	-2173
▁ايیں	-2174
▁بھی۔	-2175
▁سندھ	-2176
▁عرصہ	-2177
▁پڑتا	-2178
▁چینی	-2179
▁علاقے	-2180
▁انقلاب	-2181
▁خواتین	-2182
جم	-2183
ٹل	-2184
ابط	-2185
انڈ	-2186
طور	-2187
فرت	-2188
فیہ	-2189
لوب	-2190
ونڈ	-2191
وٹی	-2192
يین	-2193
گیا	-2194
▁طے	-2195
▁مب	-2196
▁يی	-2197
▁ہج	-2198
اينس	-2199
اہمی	-2200
ہرست	-2201
▁ازم	-2202
▁بنی	-2203
▁بنے	-2204
▁بیل	-2205
▁خات	-2206
▁خلی	-2207
▁ذرا	-2208
▁سون	-2209
▁سیر	-2210
▁عدم	-2211
▁قبل	-2212
▁قدم	-2213
▁مہر	-2214
▁ہنگ	-2215
ايیاں	-2216
ايیکل	-2217
▁اسکو	-2218
▁اوپر	-2219
▁ايین	-2220
▁ترکی	-2221
▁تھوڑ	-2222
▁حساب	-2223
▁سسٹم	-2224
▁سکیں	-2225
▁عامر	-2226
▁لاين	-2227
▁نفرت	-2228
▁ویسے	-2229
▁چلتا	-2230
▁چلتے	-2231
▁کروڑ	-2232
▁کرکے	-2233
▁اچانک	-2234
▁عبدال	-2235
▁ویلتھ	-2236
▁پیشکش	-2237
▁پیغام	-2238
▁ایفیکٹ	-2239
▁برقرار	-2240
▁دلچسپی	-2241
▁سربراہ	-2242
▁انتہايی	-2243
▁انسانوں	-2244
▁چیمپينز	-2245
▁کمپنیوں	-2246
▁مسلمانوں	-2247
یے	-2248
ایت	-2249
تھر	-2250
ناک	-2251
ندن	-2252
بتلا	-2253
▁لطف	-2254
▁کرک	-2255
▁ازما	-2256
▁ايے۔	-2257
▁بالی	-2258
▁کمرے	-2259
▁املیٹ	-2260
▁تصویر	-2261
▁مبتلا	-2262
▁مظاہر	-2263
▁حکمران	-2264
زن	-2265
طل	-2266
قے	-2267
و۔	-2268
اتح	-2269
افظ	-2270
اہے	-2271
راض	-2272
راپ	-2273
لیت	-2274
ھیر	-2275
یاء	-2276
▁تہ	-2277
▁نت	-2278
▁پا	-2279
بادل	-2280
ریبا	-2281
▁بلے	-2282
▁بھگ	-2283
▁سپر	-2284
▁طوف	-2285
▁محک	-2286
▁ناق	-2287
▁ویز	-2288
▁کيے	-2289
▁گور	-2290
▁تازہ	-2291
▁جنون	-2292
▁سرگر	-2293
▁سمیت	-2294
▁صنعت	-2295
▁علیہ	-2296
▁مقصد	-2297
▁ملیں	-2298
▁پیسے	-2299
▁ہوسک	-2300
▁اخلاق	-2301
▁طریقہ	-2302
▁محدود	-2303
▁مسترد	-2304
▁مقامی	-2305
▁ہوگيے	-2306
▁تقریبا	-2307
▁زرداری	-2308
▁مطالعہ	-2309
▁اداکارہ	-2310
احد	-2311
فرد	-2312
▁تس	-2313
▁ٹک	-2314
▁پن	-2315
بادت	-2316
▁ذہن	-2317
▁معذ	-2318
▁ممب	-2319
▁پتا	-2320
▁یکس	-2321
ايیگی	-2322
▁اتنے	-2323
▁طویل	-2324
▁واحد	-2325
▁اثرات	-2326
▁محفوظ	-2327
▁منفرد	-2328
▁جايیں۔	-2329
▁قیمتیں	-2330
▁انسانیت	-2331
▁جماعتوں	-2332
فتے	-2333
لمی	-2334
لیے	-2335
▁لح	-2336
▁چم	-2337
لايی	-2338
یايی	-2339
یلنج	-2340
▁ایڈ	-2341
▁دیے	-2342
▁ریٹ	-2343
▁زلز	-2344
▁شاي	-2345
▁عید	-2346
▁لبر	-2347
▁منق	-2348
▁ناف	-2349
▁نسل	-2350
▁ووڈ	-2351
▁کرل	-2352
▁بیٹے	-2353
▁خانہ	-2354
▁دلکش	-2355
▁رہنا	-2356
▁شعبے	-2357
▁طالب	-2358
▁میاں	-2359
▁ٹرین	-2360
▁کاری	-2361
▁کامن	-2362
▁کتنی	-2363
▁کمال	-2364
▁کیا۔	-2365
▁ہفتے	-2366
▁اجتما	-2367
▁ایشین	-2368
▁برامد	-2369
▁بیٹھا	-2370
▁سنچری	-2371
▁محمود	-2372
▁مرحلے	-2373
▁چیلنج	-2374
▁ایوارڈ	-2375
▁دوستوں	-2376
▁پریشان	-2377
▁سٹریلیا	-2378
اڑی	-2379
سٹک	-2380
یاب	-2381
▁ڈب	-2382
ایا۔	-2383
سمین	-2384
▁ریل	-2385
▁سلط	-2386
▁شنا	-2387
لاسٹک	-2388
▁اختر	-2389
▁الود	-2390
▁تھری	-2391
▁عظیم	-2392
▁لندن	-2393
▁عبادت	-2394
▁اعتبار	-2395
▁مقابلہ	-2396
▁مقامات	-2397
▁بیٹسمین	-2398
▁خوبصورت	-2399
حہ	-2400
دف	-2401
دل	-2402
ذب	-2403
طر	-2404
انت	-2405
ریم	-2406
ساب	-2407
ویت	-2408
یسی	-2409
یکا	-2410
▁بگ	-2411
▁ست	-2412
▁لب	-2413
▁وح	-2414
▁وض	-2415
رايی	-2416
زدیک	-2417
ودار	-2418
یکٹس	-2419
▁اتح	-2420
▁اول	-2421
▁ایٹ	-2422
▁ایپ	-2423
▁بجا	-2424
▁بیر	-2425
▁جنا	-2426
▁زدہ	-2427
▁سبز	-2428
▁شکر	-2429
▁صدی	-2430
▁عقل	-2431
▁عہد	-2432
▁لگی	-2433
▁مصر	-2434
▁پاگ	-2435
▁پیک	-2436
▁ہور	-2437
ربايی	-2438
▁اصول	-2439
▁اظہر	-2440
▁اٹھا	-2441
▁جھوٹ	-2442
▁خطرہ	-2443
▁سازی	-2444
▁لحاظ	-2445
▁موسی	-2446
▁نشان	-2447
▁وسطی	-2448
▁وسیم	-2449
▁کرسک	-2450
▁کورٹ	-2451
▁گھوم	-2452
▁ابادی	-2453
▁افسوس	-2454
▁اہستہ	-2455
▁اہمیت	-2456
▁بحالی	-2457
▁جارہا	-2458
▁خوشبو	-2459
▁زمانے	-2460
▁سمندر	-2461
▁طوفان	-2462
▁فہرست	-2463
▁محکمہ	-2464
▁مقدمے	-2465
▁نزدیک	-2466
▁وزارت	-2467
▁پرندہ	-2468
▁پہچان	-2469
▁کیجيے	-2470
▁گھنٹے	-2471
▁احتساب	-2472
▁انٹرنی	-2473
▁پریکٹس	-2474
▁اذربايی	-2475
▁برطانوی	-2476
نیڈ	-2477
پار	-2478
یند	-2479
انیے	-2480
ايیٹ	-2481
▁طبی	-2482
▁فرم	-2483
▁قرض	-2484
▁لٹک	-2485
▁نفا	-2486
پارٹی	-2487
▁اگلے	-2488
▁بھری	-2489
▁سکے۔	-2490
▁کھڑا	-2491
▁کیمپ	-2492
▁انگلش	-2493
▁بنايی	-2494
▁تعمیر	-2495
▁سامنا	-2496
▁مسيلے	-2497
▁ملتان	-2498
▁مناسب	-2499
▁ٹیموں	-2500
▁کینیڈ	-2501
▁امتحان	-2502
▁اپریشن	-2503
▁حکومتی	-2504
▁شاندار	-2505
▁اقدامات	-2506
▁پیپلزپارٹی	-2507
سا	-2508
چے	-2509
امہ	-2510
ايز	-2511
ايس	-2512
تیں	-2513
زمت	-2514
منی	-2515
ونچ	-2516
تماد	-2517
تمام	-2518
ردست	-2519
▁اتر	-2520
▁افس	-2521
▁برب	-2522
▁بیچ	-2523
▁راز	-2524
▁سرخ	-2525
▁سکھ	-2526
▁شرم	-2527
▁شہز	-2528
▁فیس	-2529
▁قتل	-2530
▁مطم	-2531
▁مٹی	-2532
▁وبا	-2533
▁پود	-2534
▁چھپ	-2535
▁کوہ	-2536
▁گلی	-2537
انايی	-2538
▁انتق	-2539
▁بولی	-2540
▁تقاض	-2541
▁خطرے	-2542
▁سارا	-2543
▁سنتا	-2544
▁شدید	-2545
▁فاتح	-2546
▁فلاح	-2547
▁لازم	-2548
▁لبرل	-2549
▁نماز	-2550
▁پھنس	-2551
▁پہلو	-2552
▁گرفت	-2553
▁ہیرو	-2554
▁انکار	-2555
▁انھوں	-2556
▁تجربہ	-2557
▁تشکیل	-2558
▁جذبات	-2559
▁خارجہ	-2560
▁رجحان	-2561
▁سالوں	-2562
▁شخصیت	-2563
▁لکھنے	-2564
▁مصروف	-2565
▁نتايج	-2566
▁پچھلے	-2567
▁چھوٹی	-2568
▁ہوگيی	-2569
▁اعتماد	-2570
▁اہتمام	-2571
▁علامات	-2572
▁قیمتوں	-2573
▁متبادل	-2574
▁ملازمت	-2575
▁اجتماعی	-2576
▁توانايی	-2577
▁جماعتیں	-2578
▁زر	-2579
حکام	-2580
▁ابی	-2581
▁اسپ	-2582
▁ترک	-2583
▁واب	-2584
▁بننے	-2585
▁قايد	-2586
▁ٹیکن	-2587
▁کھول	-2588
▁کیسی	-2589
▁احباب	-2590
▁حقايق	-2591
▁درامد	-2592
▁لگانے	-2593
▁معذرت	-2594
▁ویڈیو	-2595
▁ٹونٹی	-2596
▁پہنچی	-2597
▁کمیٹی	-2598
▁کھیلا	-2599
▁ہوتا۔	-2600
▁ہسپتال	-2601
▁ادايیگی	-2602
▁استحکام	-2603
خر	-2604
رگ	-2605
شر	-2606
وت	-2607
احت	-2608
امت	-2609
ايو	-2610
صاب	-2611
فتہ	-2612
میٹ	-2613
وسہ	-2614
يیے	-2615
ہیز	-2616
▁تف	-2617
▁جر	-2618
▁حد	-2619
▁عص	-2620
▁ند	-2621
▁وق	-2622
ادری	-2623
ايے۔	-2624
صادی	-2625
طلاح	-2626
مالی	-2627
مبلی	-2628
وامی	-2629
یکشن	-2630
▁تاي	-2631
▁خرچ	-2632
▁سیٹ	-2633
▁عزت	-2634
▁فلس	-2635
▁مرد	-2636
▁منی	-2637
▁موت	-2638
▁نار	-2639
▁نبی	-2640
▁نفس	-2641
▁ویر	-2642
▁ہدف	-2643
▁ہی۔	-2644
▁افسر	-2645
▁تحفظ	-2646
▁جتنا	-2647
▁جرمن	-2648
▁خالی	-2649
▁دنوں	-2650
▁زايد	-2651
▁سازش	-2652
▁سیمی	-2653
▁شراب	-2654
▁غلام	-2655
▁فضول	-2656
▁لہذا	-2657
▁مساف	-2658
▁مقام	-2659
▁نافذ	-2660
▁پھیل	-2661
▁چايے	-2662
▁ہجوم	-2663
▁اتحاد	-2664
▁اسٹاک	-2665
▁اعصاب	-2666
▁افواج	-2667
▁بازار	-2668
▁بولنے	-2669
▁خزانہ	-2670
▁خصوصی	-2671
▁ساينس	-2672
▁سوچتا	-2673
▁سپریم	-2674
▁شکریہ	-2675
▁عوامی	-2676
▁قوتیں	-2677
▁مانتے	-2678
▁مقابل	-2679
▁پرہیز	-2680
▁پوچھا	-2681
▁چونکہ	-2682
▁چیزیں	-2683
▁گيیں۔	-2684
▁اسمبلی	-2685
▁اصطلاح	-2686
▁امریکا	-2687
▁بیٹھنے	-2688
▁سمجھنے	-2689
▁متعارف	-2690
▁منظوری	-2691
▁پالیسی	-2692
▁اقتصادی	-2693
▁جانوروں	-2694
▁منصوبوں	-2695
▁کمپیوٹر	-2696
▁اذربايیجان	-2697
ذر	-2698
افٹ	-2699
ورہ	-2700
ڈنگ	-2701
ڈیم	-2702
کنگ	-2703
ہے۔	-2704
▁راج	-2705
▁فیض	-2706
▁ملز	-2707
▁وار	-2708
▁ٹاک	-2709
▁پہن	-2710
▁باری	-2711
▁رہے۔	-2712
▁مارچ	-2713
▁مشرف	-2714
▁کیری	-2715
▁اندوز	-2716
▁سمجھے	-2717
▁سوايے	-2718
▁عدلیہ	-2719
▁مايیک	-2720
▁مقدار	-2721
▁ہويی۔	-2722
▁جاپانی	-2723
▁دیکھنا	-2724
▁ڈاکٹروں	-2725
خو	-2726
رک	-2727
مے	-2728
وف	-2729
ڈل	-2730
ھا	-2731
▁ه	-2732
ادو	-2733
اسی	-2734
باز	-2735
دری	-2736
سنگ	-2737
يیر	-2738
پیش	-2739
▁اث	-2740
▁کچ	-2741
▁ہٹ	-2742
ثریت	-2743
لیمی	-2744
گزیر	-2745
▁باغ	-2746
▁جام	-2747
▁روب	-2748
▁سنس	-2749
▁صدا	-2750
▁فرش	-2751
▁فضا	-2752
▁قلم	-2753
▁محت	-2754
▁مضم	-2755
▁معز	-2756
▁منٹ	-2757
▁میل	-2758
▁ٹکٹ	-2759
▁پیم	-2760
▁پین	-2761
▁پیچ	-2762
▁چلی	-2763
▁گری	-2764
▁ہنس	-2765
▁ہوچ	-2766
▁امین	-2767
▁ایير	-2768
▁بارہ	-2769
▁بطور	-2770
▁بھگت	-2771
▁تاثر	-2772
▁تعین	-2773
▁حافظ	-2774
▁دفاع	-2775
▁رونا	-2776
▁رکھی	-2777
▁سننے	-2778
▁فکری	-2779
▁مذاق	-2780
▁مرضی	-2781
▁مریم	-2782
▁وغیر	-2783
▁ٹھہر	-2784
▁چھٹی	-2785
▁گورن	-2786
▁باہمی	-2787
▁تھوڑی	-2788
▁حرارت	-2789
▁خلیفہ	-2790
▁دھرنے	-2791
▁شہزاد	-2792
▁قدرتی	-2793
▁لازمی	-2794
▁لگايے	-2795
▁مرکزی	-2796
▁ملکوں	-2797
▁وضاحت	-2798
▁پسندی	-2799
▁کرلیا	-2800
▁اکثریت	-2801
▁قانونی	-2802
▁ماہرین	-2803
▁مجموعی	-2804
▁معاشرہ	-2805
▁معیاری	-2806
▁ناقابل	-2807
▁ناگزیر	-2808
▁پرندوں	-2809
▁الیکٹرک	-2810
▁مطالبات	-2811
وک	-2812
گا	-2813
جھے	-2814
زاج	-2815
نما	-2816
واں	-2817
▁اڑ	-2818
▁حت	-2819
خصوص	-2820
▁بہر	-2821
▁سرح	-2822
▁چمک	-2823
▁رسول	-2824
▁عملے	-2825
▁فوری	-2826
▁نامے	-2827
▁نفاذ	-2828
▁اجلاس	-2829
▁ارادہ	-2830
▁بھاری	-2831
▁تیاری	-2832
▁حیران	-2833
▁ریلوے	-2834
▁مرحلہ	-2835
▁ممبيی	-2836
▁نیشنل	-2837
▁پرستی	-2838
▁پلاسٹک	-2839
▁دیکھیے۔	-2840
خی	-2841
زب	-2842
له	-2843
ادم	-2844
ازت	-2845
افت	-2846
امن	-2847
بیر	-2848
ظیم	-2849
لیف	-2850
میں	-2851
نگی	-2852
کیا	-2853
یدر	-2854
▁تخ	-2855
▁دف	-2856
▁شپ	-2857
▁عش	-2858
▁نع	-2859
▁گم	-2860
انین	-2861
اویہ	-2862
وراک	-2863
ورلڈ	-2864
▁الط	-2865
▁اکر	-2866
▁بیش	-2867
▁ترق	-2868
▁توڑ	-2869
▁جذب	-2870
▁خطے	-2871
▁داد	-2872
▁سکہ	-2873
▁صبا	-2874
▁عرف	-2875
▁قات	-2876
▁قار	-2877
▁نیپ	-2878
▁چھی	-2879
▁ڈار	-2880
رايیل	-2881
ریٹنگ	-2882
ٹرویو	-2883
کاروں	-2884
▁احسن	-2885
▁الاق	-2886
▁انڈے	-2887
▁بہار	-2888
▁جمال	-2889
▁سوچا	-2890
▁شمار	-2891
▁ضیاء	-2892
▁لانے	-2893
▁لايٹ	-2894
▁لمحہ	-2895
▁مجید	-2896
▁مسلط	-2897
▁مودی	-2898
▁نقطہ	-2899
▁وعدہ	-2900
▁پاگل	-2901
▁کرلی	-2902
▁کپور	-2903
▁کھڑے	-2904
▁اسمان	-2905
▁اضافے	-2906
▁اوقات	-2907
▁ايینی	-2908
▁بہتری	-2909
▁بیلجی	-2910
▁تايید	-2911
▁تقریب	-2912
▁تنظیم	-2913
▁تھوڑا	-2914
▁تیسرے	-2915
▁جرمنی	-2916
▁جنگلی	-2917
▁جگہوں	-2918
▁سلسلہ	-2919
▁سوچنا	-2920
▁مطمين	-2921
▁معروف	-2922
▁مکانی	-2923
▁نتیجے	-2924
▁واپسی	-2925
▁ٹھنڈی	-2926
▁چھوٹے	-2927
_266306	-2928
▁ازمايش	-2929
▁اعتراض	-2930
▁زبردست	-2931
▁سايیکل	-2932
▁سمجھتے	-2933
▁قاريین	-2934
▁قوانین	-2935
▁مجموعہ	-2936
▁مخالفت	-2937
▁مطالبہ	-2938
▁اسرايیل	-2939
▁انٹرویو	-2940
▁ترقیاتی	-2941
▁خواہشات	-2942
▁الاقوامی	-2943
▁فیفاورلڈ	-2944
خب	-2945
شے	-2946
ازن	-2947
اقع	-2948
نیا	-2949
▁تے	-2950
▁سج	-2951
▁طل	-2952
اعدہ	-2953
▁ستم	-2954
▁نگر	-2955
▁چلو	-2956
الوجی	-2957
نامنٹ	-2958
▁حرکت	-2959
▁عايد	-2960
▁لیں۔	-2961
▁نکلے	-2962
▁کوار	-2963
▁کہنے	-2964
روسافٹ	-2965
▁سڑکوں	-2966
▁مختصر	-2967
▁منایا	-2968
▁مواقع	-2969
▁داستان	-2970
▁مریضوں	-2971
▁کیریير	-2972
▁ٹورنامنٹ	-2973
▁مايیکروسافٹ	-2974
اڈ	-2975
يم	-2976
پہ	-2977
چل	-2978
‘‘	-2979
اصد	-2980
انپ	-2981
بیا	-2982
خوا	-2983
ستے	-2984
عات	-2985
لیق	-2986
نگز	-2987
ٹرل	-2988
پاک	-2989
چار	-2990
ڈول	-2991
کھے	-2992
ہرے	-2993
▁جع	-2994
▁سل	-2995
▁عط	-2996
▁نگ	-2997
▁وف	-2998
▁پش	-2999
رحال	-3000
فارم	-3001
گوار	-3002
▁ایت	-3003
▁باس	-3004
▁بیک	-3005
▁جوش	-3006
▁حزب	-3007
▁حوص	-3008
▁رنز	-3009
▁ریف	-3010
▁سہی	-3011
▁فخر	-3012
▁فرا	-3013
▁قصد	-3014
▁ميی	-3015
▁مہم	-3016
▁نظم	-3017
▁نقل	-3018
▁نما	-3019
▁چرا	-3020
خواست	-3021
▁اخرا	-3022
▁اینڈ	-3023
▁بیٹی	-3024
▁تجاو	-3025
▁جايز	-3026
▁حقوق	-3027
▁دولت	-3028
▁رواں	-3029
▁سکول	-3030
▁شعیب	-3031
▁فاير	-3032
▁فریق	-3033
▁فوجی	-3034
▁فیشن	-3035
▁قاتل	-3036
▁قبضہ	-3037
▁لنکا	-3038
▁مارا	-3039
▁مشین	-3040
▁مغرب	-3041
▁ملتی	-3042
▁نجات	-3043
▁نصیب	-3044
▁نمون	-3045
▁پودے	-3046
▁کویت	-3047
▁گروپ	-3048
▁اجازت	-3049
▁ارمین	-3050
▁تجارت	-3051
▁تخلیق	-3052
▁جیتنے	-3053
▁حادثے	-3054
▁حلقوں	-3055
▁دانوں	-3056
▁دیکھو	-3057
▁رابطہ	-3058
▁لکھتے	-3059
▁محترم	-3060
▁معیار	-3061
▁مقاصد	-3062
▁مناظر	-3063
▁مہمان	-3064
▁نامزد	-3065
▁وغیرہ	-3066
▁وفاقی	-3067
▁پشاور	-3068
_266307	-3069
▁بہرحال	-3070
▁تمہارا	-3071
▁جاسکتی	-3072
▁خیالات	-3073
▁دروازہ	-3074
▁دیکھتا	-3075
▁دیکھتے	-3076
▁دیکھيے	-3077
▁روحانی	-3078
▁شہریوں	-3079
▁مشکلات	-3080
▁نمودار	-3081
▁ورلڈکپ	-3082
▁پوزیشن	-3083
▁الزامات	-3084
▁خوشگوار	-3085
▁درخواست	-3086
▁مصنوعات	-3087
▁مقبولیت	-3088
▁کاروباری	-3089
اوت	-3090
اکر	-3091
▁لک	-3092
▁ھو	-3093
ورٹی	-3094
▁اير	-3095
▁شرٹ	-3096
▁طرز	-3097
▁غرض	-3098
▁مدت	-3099
▁وزن	-3100
▁ہوس	-3101
▁بھلا	-3102
▁حتمی	-3103
▁سختی	-3104
▁سوچے	-3105
▁مرنے	-3106
▁نکلا	-3107
▁چلنے	-3108
▁ہوکر	-3109
▁انڈیا	-3110
▁فنکار	-3111
▁میٹھا	-3112
▁پہاڑی	-3113
▁کرونا	-3114
▁گوادر	-3115
▁فیصلوں	-3116
▁مصنوعی	-3117
▁وابستہ	-3118
▁اسٹیڈیم	-3119
حص	-3120
گھ	-3121
احق	-3122
الہ	-3123
برا	-3124
ستر	-3125
سیع	-3126
عید	-3127
فیظ	-3128
وام	-3129
پور	-3130
چین	-3131
ہری	-3132
ہوم	-3133
یرے	-3134
▁ذر	-3135
▁کٹ	-3136
▁ہن	-3137
اہدے	-3138
رانہ	-3139
رحمن	-3140
زمین	-3141
ينات	-3142
يیے۔	-3143
چینج	-3144
ڈیوں	-3145
کشاف	-3146
ھیرا	-3147
▁الو	-3148
▁الی	-3149
▁باق	-3150
▁بان	-3151
▁باپ	-3152
▁بجے	-3153
▁بدن	-3154
▁بچا	-3155
▁بید	-3156
▁تار	-3157
▁جمع	-3158
▁حصے	-3159
▁دہر	-3160
▁روڈ	-3161
▁سبق	-3162
▁لطی	-3163
▁لہر	-3164
▁مجب	-3165
▁نرخ	-3166
▁ویم	-3167
▁پکڑ	-3168
▁چیف	-3169
▁کاش	-3170
▁گاہ	-3171
▁گنج	-3172
لینڈز	-3173
▁اشنا	-3174
▁برتن	-3175
▁بزرگ	-3176
▁بوتل	-3177
▁بوجھ	-3178
▁جناب	-3179
▁جیسی	-3180
▁حیات	-3181
▁حیرت	-3182
▁دباو	-3183
▁دکھا	-3184
▁ذہنی	-3185
▁سردی	-3186
▁سنگھ	-3187
▁سورہ	-3188
▁سیکر	-3189
▁صفیہ	-3190
▁فورا	-3191
▁قبضے	-3192
▁لاحق	-3193
▁لیتی	-3194
▁لیيے	-3195
▁مادی	-3196
▁مالی	-3197
▁مخلو	-3198
▁مشرو	-3199
▁معاف	-3200
▁معزز	-3201
▁ملتا	-3202
▁مناف	-3203
▁نگار	-3204
▁ویزا	-3205
▁پاوں	-3206
▁ڈالا	-3207
▁کارڈ	-3208
▁کالم	-3209
▁گرما	-3210
▁گولڈ	-3211
▁گھبر	-3212
▁اننگز	-3213
▁تجاوز	-3214
▁تکلیف	-3215
▁خلافت	-3216
▁داخلہ	-3217
▁ساتھی	-3218
▁سنٹرل	-3219
▁شاعری	-3220
▁شمالی	-3221
▁علامہ	-3222
▁مشرقی	-3223
▁مضمون	-3224
▁مفہوم	-3225
▁مہارت	-3226
▁نہایت	-3227
▁واقعے	-3228
▁چاہتی	-3229
▁ڈھونڈ	-3230
▁کررہے	-3231
▁کریں۔	-3232
▁انڈونی	-3233
▁اٹھانا	-3234
▁بربادی	-3235
▁بھروسہ	-3236
▁بیانیے	-3237
▁تنہايی	-3238
▁دنیاوی	-3239
▁روایات	-3240
▁شايقین	-3241
▁متعلقہ	-3242
▁مولانا	-3243
▁ویسٹرن	-3244
▁پارلیم	-3245
▁پھولوں	-3246
▁پیدايش	-3247
▁کاينات	-3248
▁ارمینیا	-3249
▁ایشوریا	-3250
▁موجودگی	-3251
▁ایکسچینج	-3252
▁بٹ	-3253
یالی	-3254
▁ابت	-3255
▁تاج	-3256
▁محب	-3257
▁مزد	-3258
▁کرم	-3259
▁گنا	-3260
▁تھام	-3261
▁رویہ	-3262
▁شاعر	-3263
▁شہید	-3264
▁فروغ	-3265
▁خیالی	-3266
▁دايرے	-3267
▁دیجيے	-3268
▁لمحات	-3269
▁مشورہ	-3270
▁نظریں	-3271
▁پہنچے	-3272
▁چولہا	-3273
▁ایجنسی	-3274
▁خطرناک	-3275
▁خوابوں	-3276
▁دستیاب	-3277
▁سرحدوں	-3278
▁سنبھال	-3279
▁کوارٹر	-3280
▁معلومات	-3281
تو	-3282
دد	-3283
ضہ	-3284
عن	-3285
غہ	-3286
ٹہ	-3287
ڈو	-3288
گل	-3289
ارق	-3290
اوٹ	-3291
اوی	-3292
اگر	-3293
اہل	-3294
ایک	-3295
بود	-3296
جاد	-3297
جیے	-3298
حاق	-3299
راء	-3300
سوخ	-3301
سیح	-3302
شتر	-3303
قول	-3304
مار	-3305
مبر	-3306
منٹ	-3307
ندگ	-3308
وان	-3309
ویل	-3310
▁جے	-3311
▁رم	-3312
▁عن	-3313
▁نن	-3314
▁گن	-3315
▁یق	-3316
ارات	-3317
انکہ	-3318
بانی	-3319
جویز	-3320
طراب	-3321
فرنس	-3322
قینا	-3323
▁اجن	-3324
▁الج	-3325
▁تمھ	-3326
▁تہذ	-3327
▁خون	-3328
▁رام	-3329
▁رین	-3330
▁شور	-3331
▁شیط	-3332
▁فرض	-3333
▁مسک	-3334
▁نکھ	-3335
▁وفد	-3336
▁ویک	-3337
▁ٹکر	-3338
▁چیک	-3339
▁ڈاي	-3340
▁ڈیو	-3341
▁کشم	-3342
▁کول	-3343
▁کے۔	-3344
▁گند	-3345
▁ہرا	-3346
ندگان	-3347
نمايی	-3348
ینڈرڈ	-3349
یکسین	-3350
▁ارجن	-3351
▁ارہے	-3352
▁اساس	-3353
▁امور	-3354
▁انکے	-3355
▁بھرا	-3356
▁تیند	-3357
▁جعلی	-3358
▁جہاز	-3359
▁حدود	-3360
▁ديیے	-3361
▁ذاتی	-3362
▁غلطی	-3363
▁لایا	-3364
▁لگتے	-3365
▁لگنا	-3366
▁ماڈل	-3367
▁مختص	-3368
▁مراد	-3369
▁مسیح	-3370
▁منصب	-3371
▁ناول	-3372
▁نظری	-3373
▁نیچے	-3374
▁واٹس	-3375
▁ورزی	-3376
▁ویسی	-3377
▁ٹايٹ	-3378
▁ٹیلی	-3379
▁پتھر	-3380
▁پروف	-3381
▁پڑھی	-3382
▁چارج	-3383
▁چارہ	-3384
▁چلتی	-3385
▁ڈراپ	-3386
▁کرو۔	-3387
▁کھڑی	-3388
▁کینٹ	-3389
▁گروہ	-3390
ٹرولیم	-3391
▁احتیا	-3392
▁ادارہ	-3393
▁اسحاق	-3394
▁انھیں	-3395
▁ایٹمی	-3396
▁برسوں	-3397
▁بولتے	-3398
▁بڑھنے	-3399
▁تجویز	-3400
▁تقریر	-3401
▁تقویت	-3402
▁تیسری	-3403
▁جاننے	-3404
▁حوصلہ	-3405
▁خاتون	-3406
▁خوراک	-3407
▁روبوٹ	-3408
▁زبانی	-3409
▁سنايی	-3410
▁سوچنے	-3411
▁شکاری	-3412
▁شہباز	-3413
▁شہریت	-3414
▁عقیدہ	-3415
▁علامت	-3416
▁مابین	-3417
▁مخالف	-3418
▁منتخب	-3419
▁منسوخ	-3420
▁منظور	-3421
▁مہنگا	-3422
▁میٹھے	-3423
▁نظریہ	-3424
▁نکالا	-3425
▁نیپرا	-3426
▁ٹھنڈا	-3427
▁چالیس	-3428
▁چھٹنی	-3429
▁کاموں	-3430
▁کوریا	-3431
▁کےلیے	-3432
▁ہوتی۔	-3433
▁یقینا	-3434
▁اسکواڈ	-3435
▁اضطراب	-3436
▁بیانیہ	-3437
▁دیکھیں	-3438
▁رینکنگ	-3439
▁سلامتی	-3440
▁سمجھتا	-3441
▁سمجھنا	-3442
▁فارمیٹ	-3443
▁مطالعے	-3444
▁نمایاں	-3445
▁ویکسین	-3446
▁پہنچنے	-3447
▁پیغمبر	-3448
▁ہويیں۔	-3449
▁اپوزیشن	-3450
▁بیلجیيم	-3451
▁حالانکہ	-3452
▁کانفرنس	-3453
▁اسٹینڈرڈ	-3454
اسٹ	-3455
مین	-3456
ومی	-3457
کھا	-3458
▁خش	-3459
▁قص	-3460
▁نج	-3461
اراض	-3462
▁سمت	-3463
▁شدہ	-3464
▁فضل	-3465
▁ارڈر	-3466
▁داخل	-3467
▁روشن	-3468
▁عمدہ	-3469
▁لايے	-3470
▁مزاح	-3471
▁میچز	-3472
▁گردی	-3473
▁گریز	-3474
▁یاسر	-3475
▁اقدار	-3476
▁ایونٹ	-3477
▁ایکسپ	-3478
▁مخصوص	-3479
▁پرواز	-3480
▁ڈرامے	-3481
▁کرکٹر	-3482
▁مزدوری	-3483
اث	-3484
زے	-3485
چر	-3486
گے	-3487
ءال	-3488
اہٹ	-3489
بری	-3490
رمپ	-3491
روم	-3492
سٹر	-3493
صرہ	-3494
ظوظ	-3495
عیت	-3496
فتر	-3497
میل	-3498
نسر	-3499
ودی	-3500
ٹتے	-3501
کتا	-3502
گری	-3503
▁بغ	-3504
▁زد	-3505
ابطے	-3506
ابھی	-3507
احوں	-3508
اخیر	-3509
ايرم	-3510
اہے۔	-3511
نامہ	-3512
ينٹی	-3513
یریا	-3514
▁اسل	-3515
▁الم	-3516
▁اون	-3517
▁بٹن	-3518
▁بیت	-3519
▁بیگ	-3520
▁تری	-3521
▁تما	-3522
▁تنگ	-3523
▁جار	-3524
▁جیب	-3525
▁زخم	-3526
▁سرا	-3527
▁شکل	-3528
▁صوب	-3529
▁طنز	-3530
▁ظلم	-3531
▁عشق	-3532
▁غاز	-3533
▁لاک	-3534
▁معج	-3535
▁مین	-3536
▁ناد	-3537
▁نری	-3538
▁نمک	-3539
▁نوٹ	-3540
▁پان	-3541
▁پکے	-3542
▁چھڑ	-3543
▁کرس	-3544
▁ھوں	-3545
▁یوس	-3546
ايیٹڈ	-3547
کریاں	-3548
▁امام	-3549
▁بدلے	-3550
▁بلوچ	-3551
▁جبری	-3552
▁جیتے	-3553
▁حامل	-3554
▁حامی	-3555
▁حروف	-3556
▁حساس	-3557
▁حصول	-3558
▁حفیظ	-3559
▁خدشہ	-3560
▁دفتر	-3561
▁دہشت	-3562
▁سانس	-3563
▁سفار	-3564
▁سويی	-3565
▁صادر	-3566
▁طارق	-3567
▁عظمت	-3568
▁غايب	-3569
▁لانا	-3570
▁لیا۔	-3571
▁مارے	-3572
▁مانی	-3573
▁مشرق	-3574
▁نبات	-3575
▁نکلی	-3576
▁ٹرمپ	-3577
▁پایا	-3578
▁پڑتے	-3579
▁چراغ	-3580
▁ڈھال	-3581
▁کچرا	-3582
▁گران	-3583
▁گناہ	-3584
ايرمنٹ	-3585
▁اضافی	-3586
▁انجام	-3587
▁ایکشن	-3588
▁بتايے	-3589
▁بدلنے	-3590
▁بناتے	-3591
▁بڑھتی	-3592
▁تبصرہ	-3593
▁تصادم	-3594
▁تعاون	-3595
▁ذریعہ	-3596
▁رکاوٹ	-3597
▁سرگرم	-3598
▁شریعت	-3599
▁فرشتے	-3600
▁فلاحی	-3601
▁لطافت	-3602
▁لگانا	-3603
▁ماننا	-3604
▁محظوظ	-3605
▁منیجر	-3606
▁نارمل	-3607
▁نشانہ	-3608
▁وسايل	-3609
▁پڑھنے	-3610
▁پہنچا	-3611
▁کردیں	-3612
▁کويٹہ	-3613
▁کینسر	-3614
▁گیارہ	-3615
▁یقینی	-3616
▁الودگی	-3617
▁انتقال	-3618
▁اٹھایا	-3619
▁بھابھی	-3620
▁بیٹھتے	-3621
▁جنگلات	-3622
▁سلیکشن	-3623
▁مفادات	-3624
▁منصوبہ	-3625
▁موسیقی	-3626
▁نریندر	-3627
▁ٹوينٹی	-3628
▁ڈاکٹرز	-3629
▁کتابیں	-3630
▁کرسکتے	-3631
▁کشیدگی	-3632
▁ہزاروں	-3633
▁اخراجات	-3634
▁امکانات	-3635
▁تقریبات	-3636
▁نظریاتی	-3637
▁پاسپورٹ	-3638
▁فرانسیسی	-3639
▁نمايندگی	-3640
▁ریٹايرمنٹ	-3641
▁ء	-3642
الم	-3643
لیو	-3644
مرہ	-3645
▁نچ	-3646
▁‘‘	-3647
▁بکھ	-3648
▁تفص	-3649
▁حما	-3650
▁عرض	-3651
▁لال	-3652
▁میز	-3653
▁پیا	-3654
▁چیخ	-3655
ايیوں	-3656
▁بھیج	-3657
▁حملہ	-3658
▁نشست	-3659
▁ویسا	-3660
▁گمان	-3661
▁بنانا	-3662
▁ترکیب	-3663
▁تعارف	-3664
▁فریدی	-3665
▁منتظر	-3666
▁ناراض	-3667
▁ٹھنڈے	-3668
▁پلانٹ	-3669
▁اعتراف	-3670
▁انکھیں	-3671
▁انٹرنیشنل	-3672
▁بیٹسمینوں	-3673
▁ٹیکنالوجی	-3674
خط	-3675
زو	-3676
غی	-3677
مر	-3678
مز	-3679
وث	-3680
وج	-3681
يس	-3682
پس	-3683
اطب	-3684
ايف	-3685
تام	-3686
جمہ	-3687
حکم	-3688
حیح	-3689
خوش	-3690
ذیر	-3691
راہ	-3692
ربت	-3693
سلو	-3694
شار	-3695
ضان	-3696
عمل	-3697
نیل	-3698
وجی	-3699
ولہ	-3700
ویش	-3701
ٹرا	-3702
ٹھی	-3703
پول	-3704
یرہ	-3705
یکل	-3706
▁طع	-3707
▁طی	-3708
▁فع	-3709
امدی	-3710
امزن	-3711
اہلی	-3712
حصار	-3713
سینے	-3714
لایا	-3715
لیير	-3716
ماٹر	-3717
ومبر	-3718
ونما	-3719
ٹايل	-3720
ٹینا	-3721
ڑیاں	-3722
کھلا	-3723
▁اشت	-3724
▁اعل	-3725
▁بیس	-3726
▁بیو	-3727
▁ترے	-3728
▁تعص	-3729
▁جاں	-3730
▁جبر	-3731
▁جلس	-3732
▁جوڑ	-3733
▁خیز	-3734
▁داغ	-3735
▁دما	-3736
▁رفت	-3737
▁سلی	-3738
▁سنج	-3739
▁سچے	-3740
▁صبر	-3741
▁عطا	-3742
▁غذا	-3743
▁فہم	-3744
▁قاب	-3745
▁قصہ	-3746
▁لسی	-3747
▁ماں	-3748
▁مشغ	-3749
▁مقت	-3750
▁مچھ	-3751
▁ناز	-3752
▁ناش	-3753
▁نجی	-3754
▁وین	-3755
▁پوس	-3756
▁پھل	-3757
▁پیٹ	-3758
▁چوہ	-3759
▁چہر	-3760
▁گجر	-3761
▁گلا	-3762
سلونا	-3763
مقابل	-3764
▁اثاث	-3765
▁انشا	-3766
▁انہی	-3767
▁اکرم	-3768
▁ایتھ	-3769
▁بادل	-3770
▁بھاگ	-3771
▁تنخو	-3772
▁جانی	-3773
▁جوہر	-3774
▁جہاد	-3775
▁دشمن	-3776
▁دکان	-3777
▁دہلی	-3778
▁دیں۔	-3779
▁روزہ	-3780
▁زمان	-3781
▁ساکھ	-3782
▁سروس	-3783
▁سعید	-3784
▁سلیم	-3785
▁شوگر	-3786
▁شوہر	-3787
▁شیير	-3788
▁غالب	-3789
▁ماسک	-3790
▁متعد	-3791
▁مجاز	-3792
▁مسکر	-3793
▁ملنا	-3794
▁نہاد	-3795
▁والد	-3796
▁پاور	-3797
▁پايی	-3798
▁پیسہ	-3799
▁چوتھ	-3800
▁چوری	-3801
▁چہرے	-3802
▁کرسی	-3803
▁کپڑے	-3804
▁کہتی	-3805
▁ہالی	-3806
▁ہلکی	-3807
▁یونس	-3808
▁اتوار	-3809
▁ادوار	-3810
▁اقوام	-3811
▁اونچا	-3812
▁ایران	-3813
▁باکسر	-3814
▁بڑھنا	-3815
▁بیشتر	-3816
▁تاخیر	-3817
▁تباہی	-3818
▁تربیت	-3819
▁ترجمہ	-3820
▁تشریف	-3821
▁تشویش	-3822
▁تعبیر	-3823
▁تھايی	-3824
▁جارہی	-3825
▁جنہوں	-3826
▁حضرات	-3827
▁حقیقی	-3828
▁درپیش	-3829
▁ذرايع	-3830
▁رسايی	-3831
▁رمضان	-3832
▁رکھتی	-3833
▁زمینی	-3834
▁سلسلے	-3835
▁سلطنت	-3836
▁سکیں۔	-3837
▁سہولت	-3838
▁سیکٹر	-3839
▁شیطان	-3840
▁شیڈول	-3841
▁صاحبہ	-3842
▁طبقات	-3843
▁مخاطب	-3844
▁مدینہ	-3845
▁مسافر	-3846
▁مہنگی	-3847
▁ناخوش	-3848
▁نمونہ	-3849
▁نومبر	-3850
▁ٹايٹل	-3851
▁ٹماٹر	-3852
▁ٹیمیں	-3853
▁پسینے	-3854
▁پھرنے	-3855
▁پھنسے	-3856
▁ڈرايی	-3857
▁کتابی	-3858
▁کرنسی	-3859
▁گامزن	-3860
▁گرانٹ	-3861
▁ہوتے۔	-3862
▁یورپی	-3863
پاکستان	-3864
▁الرحمن	-3865
▁انحصار	-3866
▁اٹھاتا	-3867
▁بوتلیں	-3868
▁بڑھانے	-3869
▁تجارتی	-3870
▁تعلیمی	-3871
▁تعینات	-3872
▁توقعات	-3873
▁دیکھیے	-3874
▁سرزمین	-3875
▁مداحوں	-3876
▁مستحکم	-3877
▁منصوبے	-3878
▁نااہلی	-3879
▁پیچیدہ	-3880
▁چوہدری	-3881
▁چھٹیاں	-3882
▁کمزوری	-3883
▁گھومنے	-3884
▁ہوجاتا	-3885
▁ہوسکتی	-3886
▁اخبارات	-3887
▁اصلاحات	-3888
▁اعلانیہ	-3889
▁باقاعدہ	-3890
▁برطانیہ	-3891
▁سیکرٹری	-3892
▁ضروریات	-3893
▁مدمقابل	-3894
▁نوکریاں	-3895
▁اخلاقیات	-3896
▁ارجنٹینا	-3897
▁انگریزوں	-3898
▁بارسلونا	-3899
▁ٹیکسٹايل	-3900
▁پابندیاں	-3901
قل	-3902
تاح	-3903
ونس	-3904
▁عل	-3905
اریہ	-3906
شتوں	-3907
کیوں	-3908
▁ادھ	-3909
▁حدی	-3910
▁دے۔	-3911
▁راش	-3912
▁سکی	-3913
▁غصہ	-3914
▁ٹاي	-3915
واروں	-3916
▁اسکے	-3917
▁الله	-3918
▁حضور	-3919
▁خطاب	-3920
▁رجوع	-3921
▁رسمی	-3922
▁سکا۔	-3923
▁مالک	-3924
▁مرتب	-3925
▁پاتا	-3926
▁پیار	-3927
▁ڈھنگ	-3928
▁کلاس	-3929
▁اسٹار	-3930
▁بدلتی	-3931
▁بناتا	-3932
▁بڑھتا	-3933
▁حمایت	-3934
▁سپاہی	-3935
▁لٹکنا	-3936
▁لگايی	-3937
▁مقدمات	-3938
▁کنٹرول	-3939
▁کینیڈا	-3940
▁ہوجاتے	-3941
▁اپریٹنگ	-3942
اٹ	-3943
ای	-3944
رس	-3945
طع	-3946
غت	-3947
غذ	-3948
فق	-3949
کم	-3950
الک	-3951
برد	-3952
بلک	-3953
بھی	-3954
توں	-3955
ذکر	-3956
زار	-3957
زاز	-3958
زلی	-3959
ستا	-3960
شاہ	-3961
شنز	-3962
غیب	-3963
لبہ	-3964
لتا	-3965
لسٹ	-3966
ندا	-3967
وتا	-3968
وسی	-3969
ولا	-3970
ونک	-3971
ويی	-3972
يٹر	-3973
ڈال	-3974
کچھ	-3975
گیر	-3976
ہبی	-3977
یبت	-3978
▁جج	-3979
▁جگ	-3980
▁دم	-3981
▁ذخ	-3982
▁عث	-3983
▁عج	-3984
▁قل	-3985
▁نث	-3986
▁وص	-3987
▁ٹم	-3988
▁چر	-3989
▁کف	-3990
اخلت	-3991
جیے۔	-3992
دارس	-3993
ذکرہ	-3994
رانی	-3995
ستگی	-3996
سیجن	-3997
قادر	-3998
لادی	-3999
لوار	-4000
ملوں	-4001
وٹنگ	-4002
پرنگ	-4003
پیين	-4004
یوسی	-4005
▁ارت	-4006
▁اسد	-4007
▁باش	-4008
▁برہ	-4009
▁بہن	-4010
▁جود	-4011
▁جین	-4012
▁دبا	-4013
▁درس	-4014
▁ذات	-4015
▁رسی	-4016
▁رضی	-4017
▁شبہ	-4018
▁شرط	-4019
▁عنہ	-4020
▁فرح	-4021
▁مرو	-4022
▁مشن	-4023
▁منس	-4024
▁موڑ	-4025
▁مچا	-4026
▁نیب	-4027
▁ٹری	-4028
▁پرس	-4029
▁پگھ	-4030
▁چوک	-4031
▁چھا	-4032
▁چھل	-4033
▁ڈیز	-4034
▁کھج	-4035
ءاللہ	-4036
اکرات	-4037
▁ابھر	-4038
▁ارزو	-4039
▁ارمی	-4040
▁انکو	-4041
▁اٹھے	-4042
▁بحال	-4043
▁بستر	-4044
▁بقول	-4045
▁بننا	-4046
▁بڑھا	-4047
▁تشدد	-4048
▁تعصب	-4049
▁تمغہ	-4050
▁تناز	-4051
▁تیرے	-4052
▁جتنی	-4053
▁جلوس	-4054
▁حیدر	-4055
▁خواص	-4056
▁خوبی	-4057
▁دامن	-4058
▁دبيی	-4059
▁دریا	-4060
▁دعوی	-4061
▁دفعہ	-4062
▁روٹی	-4063
▁رویے	-4064
▁رکھو	-4065
▁زلمی	-4066
▁سادہ	-4067
▁سنیل	-4068
▁سپرد	-4069
▁علمی	-4070
▁عورت	-4071
▁غربت	-4072
▁غلبہ	-4073
▁فارغ	-4074
▁فتوے	-4075
▁قايل	-4076
▁قسمت	-4077
▁لڑتے	-4078
▁لکھے	-4079
▁مانگ	-4080
▁مرکز	-4081
▁مصال	-4082
▁مکال	-4083
▁مہذب	-4084
▁مینڈ	-4085
▁نوٹس	-4086
▁وادی	-4087
▁پردہ	-4088
▁پڑتی	-4089
▁چینل	-4090
▁ڈاون	-4091
▁ڈھیر	-4092
▁کبڈی	-4093
▁کروا	-4094
▁کرے۔	-4095
▁کہتا	-4096
▁گوشت	-4097
▁ہايے	-4098
▁یونٹ	-4099
▁یہیں	-4100
اختیار	-4101
▁احسان	-4102
▁احوال	-4103
▁اسلوب	-4104
▁اطلاق	-4105
▁اعزاز	-4106
▁الزام	-4107
▁الیون	-4108
▁بايیک	-4109
▁بدلنا	-4110
▁بغاوت	-4111
▁بہبود	-4112
▁تذکرہ	-4113
▁تقاضا	-4114
▁تلوار	-4115
▁تنزلی	-4116
▁تیسرا	-4117
▁جرايم	-4118
▁حوالہ	-4119
▁خاموش	-4120
▁خرابی	-4121
▁دايرہ	-4122
▁درکار	-4123
▁دستخط	-4124
▁دوستی	-4125
▁دوچار	-4126
▁دھونا	-4127
▁روکنا	-4128
▁ریڈیو	-4129
▁زلزلی	-4130
▁سفارش	-4131
▁عادات	-4132
▁عثمان	-4133
▁عرفان	-4134
▁عصبیت	-4135
▁ماسکو	-4136
▁ماہرہ	-4137
▁متعدد	-4138
▁مجبور	-4139
▁مدارس	-4140
▁مستقل	-4141
▁مسکرا	-4142
▁مشغول	-4143
▁مصیبت	-4144
▁میڈرڈ	-4145
▁نوازی	-4146
▁نوعیت	-4147
▁نکلنا	-4148
▁ٹھنڈک	-4149
▁چوايس	-4150
▁ڈھانپ	-4151
▁کرانے	-4152
▁کرایا	-4153
▁کشمکش	-4154
▁کوہلی	-4155
▁کویتی	-4156
▁کھینچ	-4157
▁کیجیے	-4158
▁گندگی	-4159
▁گیسیں	-4160
▁ہويیں	-4161
▁ہويے۔	-4162
▁یونان	-4163
▁یہودی	-4164
▁اختتام	-4165
▁افسران	-4166
▁امتزاج	-4167
▁انکشاف	-4168
▁اکسیجن	-4169
▁باکسنگ	-4170
▁خصوصیت	-4171
▁سرگرمی	-4172
▁شناختی	-4173
▁شہریار	-4174
▁صاحبان	-4175
▁غلطیاں	-4176
▁مداخلت	-4177
▁مظاہرہ	-4178
▁معززین	-4179
▁مقبوضہ	-4180
▁نفسیات	-4181
▁ڈراموں	-4182
▁گاڑیاں	-4183
▁گزارنے	-4184
▁گورننس	-4185
▁ايلینڈز	-4186
▁بھايیوں	-4187
▁تحقیقات	-4188
▁حکمرانی	-4189
▁سیکورٹی	-4190
▁شریانوں	-4191
▁مذاکرات	-4192
▁ملازمین	-4193
▁چیمپیين	-4194
▁کینیڈین	-4195
▁ہسپانوی	-4196
▁چھوڑيیے۔	-4197
▁کمپیوٹرز	-4198
▁یونايیٹڈ	-4199
▁انڈونیشیا	-4200
▁عبدالقادر	-4201
▁ماحولیاتی	-4202
ڑپ	-4203
جوہ	-4204
کوس	-4205
▁ڈپ	-4206
اہمت	-4207
خانے	-4208
والے	-4209
ولوں	-4210
یوان	-4211
▁افت	-4212
▁ایچ	-4213
▁جشن	-4214
▁دھم	-4215
▁سرد	-4216
▁شاخ	-4217
▁بالر	-4218
▁دیيے	-4219
▁ریاض	-4220
▁قصور	-4221
▁لمبا	-4222
▁ونڈو	-4223
▁کردہ	-4224
▁یورو	-4225
▁انعام	-4226
▁اگرچہ	-4227
▁بکھری	-4228
▁حیوان	-4229
▁دفاعی	-4230
▁روحان	-4231
▁سکتے۔	-4232
▁سینير	-4233
▁شناخت	-4234
▁منانے	-4235
▁پرانا	-4236
▁چکوال	-4237
▁کرتے۔	-4238
▁کھاتے	-4239
▁متوازن	-4240
▁مددگار	-4241
▁والدین	-4242
▁انٹرنیٹ	-4243
▁ايرلینڈ	-4244
▁دہايیوں	-4245
▁امیدواروں	-4246
اذ	-4247
دے	-4248
ضا	-4249
فے	-4250
لن	-4251
مپ	-4252
ڈا	-4253
یٹ	-4254
یڈ	-4255
▁ي	-4256
اوا	-4257
اگہ	-4258
بیع	-4259
تاب	-4260
تمل	-4261
جری	-4262
جنٹ	-4263
راک	-4264
رتی	-4265
روک	-4266
رکہ	-4267
فاق	-4268
ملک	-4269
میز	-4270
میم	-4271
ناز	-4272
نٹی	-4273
نڈا	-4274
نڈر	-4275
ولر	-4276
ومت	-4277
وٹر	-4278
ٹیف	-4279
پنے	-4280
پہر	-4281
پیگ	-4282
گون	-4283
گيے	-4284
یبی	-4285
یرا	-4286
یکر	-4287
▁بم	-4288
▁تد	-4289
▁تل	-4290
▁رز	-4291
▁سح	-4292
▁شش	-4293
▁شل	-4294
▁غر	-4295
▁فس	-4296
▁لس	-4297
▁هے	-4298
▁چڑ	-4299
▁گذ	-4300
▁ہت	-4301
التی	-4302
انچہ	-4303
ايقہ	-4304
راصل	-4305
فقار	-4306
لانگ	-4307
لیاں	-4308
مانت	-4309
ملکت	-4310
میری	-4311
ناہٹ	-4312
وٹوک	-4313
ویتا	-4314
پمنٹ	-4315
کیلے	-4316
▁ادب	-4317
▁ارا	-4318
▁ارض	-4319
▁ارے	-4320
▁انی	-4321
▁باض	-4322
▁برف	-4323
▁بسی	-4324
▁بنو	-4325
▁بوٹ	-4326
▁بچھ	-4327
▁تھم	-4328
▁جول	-4329
▁دوں	-4330
▁روم	-4331
▁روٹ	-4332
▁رکن	-4333
▁ریگ	-4334
▁ساح	-4335
▁سلو	-4336
▁سنت	-4337
▁شرح	-4338
▁طال	-4339
▁عاص	-4340
▁غصے	-4341
▁فلا	-4342
▁فور	-4343
▁فکس	-4344
▁فیم	-4345
▁قرب	-4346
▁قری	-4347
▁لنک	-4348
▁لہو	-4349
▁مرا	-4350
▁معت	-4351
▁ناں	-4352
▁نبھ	-4353
▁نقد	-4354
▁نقش	-4355
▁نیت	-4356
▁وکٹ	-4357
▁ٹاپ	-4358
▁ٹیک	-4359
▁ڈیل	-4360
▁کھا	-4361
▁گار	-4362
▁گدھ	-4363
▁گرا	-4364
▁گلے	-4365
▁گہر	-4366
▁گین	-4367
امیوں	-4368
انگیر	-4369
▁اداس	-4370
▁المی	-4371
▁بتوں	-4372
▁بلاگ	-4373
▁بنیں	-4374
▁بیگم	-4375
▁جتنے	-4376
▁جھلک	-4377
▁حملے	-4378
▁خالق	-4379
▁دراز	-4380
▁ذوال	-4381
▁رانڈ	-4382
▁رايی	-4383
▁رشتہ	-4384
▁سايٹ	-4385
▁شرٹس	-4386
▁شریک	-4387
▁شگون	-4388
▁ضمنی	-4389
▁عباس	-4390
▁عربی	-4391
▁فرقت	-4392
▁فلور	-4393
▁فیلڈ	-4394
▁قدرے	-4395
▁لايق	-4396
▁لباس	-4397
▁لیکس	-4398
▁مبنی	-4399
▁محاذ	-4400
▁محفل	-4401
▁مراک	-4402
▁مسٹر	-4403
▁مشیر	-4404
▁مفتی	-4405
▁ملاح	-4406
▁ملوث	-4407
▁میير	-4408
▁نسبت	-4409
▁نواب	-4410
▁وارم	-4411
▁وسعت	-4412
▁وسیع	-4413
▁وکیل	-4414
▁پذیر	-4415
▁پوسٹ	-4416
▁پگھل	-4417
▁پینٹ	-4418
▁چڑھا	-4419
▁چھاپ	-4420
▁چھین	-4421
▁کلام	-4422
▁کورس	-4423
▁گندم	-4424
▁ہرگز	-4425
▁ہستی	-4426
▁ہندی	-4427
وٹوکول	-4428
▁ابتدا	-4429
▁ادراک	-4430
▁اطراف	-4431
▁ايجاد	-4432
▁بالنگ	-4433
▁بدولت	-4434
▁برباد	-4435
▁تاہوں	-4436
▁تہذیب	-4437
▁جاوید	-4438
▁دراصل	-4439
▁دوپہر	-4440
▁دھاگہ	-4441
▁رویوں	-4442
▁رہنما	-4443
▁ریفری	-4444
▁سراسر	-4445
▁سلامت	-4446
▁سوچتے	-4447
▁سپورٹ	-4448
▁شاہین	-4449
▁شویتا	-4450
▁ضمانت	-4451
▁طریقے	-4452
▁علموں	-4453
▁قیامت	-4454
▁لڑايی	-4455
▁محروم	-4456
▁مشتمل	-4457
▁مظلوم	-4458
▁معانی	-4459
▁معرفت	-4460
▁مملکت	-4461
▁نمايش	-4462
▁واقعی	-4463
▁ٹرانس	-4464
▁پايیں	-4465
▁پڑتا۔	-4466
▁پڑھنا	-4467
▁پکانا	-4468
▁پیروں	-4469
▁چوتھا	-4470
▁چھوٹا	-4471
▁چہروں	-4472
▁کاررو	-4473
▁کردیے	-4474
▁ہوايی	-4475
▁ہوچکا	-4476
▁اعتدال	-4477
▁افسردہ	-4478
▁الوداع	-4479
▁انتشار	-4480
▁ایرانی	-4481
▁ایسٹرن	-4482
▁بزرگوں	-4483
▁بھرپور	-4484
▁بیداری	-4485
▁خامیاں	-4486
▁خامیوں	-4487
▁دکھانے	-4488
▁روزمرہ	-4489
▁سپلايی	-4490
▁شاہکار	-4491
▁شروعات	-4492
▁طالبان	-4493
▁طلاقیں	-4494
▁عدالتی	-4495
▁فايرنگ	-4496
▁مصالحہ	-4497
▁مضبوطی	-4498
▁معاویہ	-4499
▁معاہدے	-4500
▁نمايشی	-4501
▁نگرانی	-4502
▁پولینڈ	-4503
▁پہنانے	-4504
▁چنانچہ	-4505
▁چھلانگ	-4506
▁کرسکتا	-4507
▁کرکٹرز	-4508
▁کھیلنا	-4509
▁کیساتھ	-4510
▁ہوجايے	-4511
▁یادگار	-4512
▁یکسويی	-4513
▁انتخابی	-4514
▁باضابطہ	-4515
▁بنیادیں	-4516
▁جمہوریہ	-4517
▁جہانگیر	-4518
▁سنسناہٹ	-4519
▁مزدوروں	-4520
▁مسکراہٹ	-4521
▁معاشرتی	-4522
▁مہربانی	-4523
▁مہنگايی	-4524
▁کہانیوں	-4525
▁ذوالفقار	-4526
▁پالیسیوں	-4527
▁پروٹوکول	-4528
▁کردیاگیا	-4529
▁گیارہویں	-4530
▁؟	-4531
عکس	-4532
فیق	-4533
نڈے	-4534
افتی	-4535
امین	-4536
دمات	-4537
لقین	-4538
کويی	-4539
▁اجر	-4540
▁سرو	-4541
▁مفت	-4542
▁اخرت	-4543
▁استق	-4544
▁اسکا	-4545
▁بچپن	-4546
▁جوان	-4547
▁حامد	-4548
▁ریال	-4549
▁فارم	-4550
▁فرما	-4551
▁مکان	-4552
▁وہیں	-4553
▁پرست	-4554
▁چلیں	-4555
▁برعکس	-4556
▁بھرتی	-4557
▁تلقین	-4558
▁جارہے	-4559
▁سايیٹ	-4560
▁ستمبر	-4561
▁سکتی۔	-4562
▁سیاحت	-4563
▁نوکری	-4564
▁ڈبلیو	-4565
▁خیالوں	-4566
▁راہنما	-4567
▁کارامد	-4568
▁ہوجانے	-4569
▁روحانیت	-4570
▁بیماریوں	-4571
حد	-4572
رپ	-4573
زر	-4574
سط	-4575
سل	-4576
سہ	-4577
سے	-4578
ضم	-4579
مع	-4580
ٹم	-4581
گس	-4582
ہن	-4583
یط	-4584
▁ے	-4585
ابع	-4586
ازے	-4587
اعد	-4588
اما	-4589
باک	-4590
بوت	-4591
بین	-4592
جاز	-4593
حات	-4594
حید	-4595
ختہ	-4596
داز	-4597
ذاب	-4598
ریح	-4599
سار	-4600
سمہ	-4601
سوں	-4602
شین	-4603
ضاد	-4604
عتی	-4605
غلط	-4606
لیس	-4607
ناس	-4608
نٹو	-4609
واس	-4610
وبز	-4611
وبل	-4612
وما	-4613
ومن	-4614
ڑوں	-4615
کوں	-4616
گال	-4617
گنے	-4618
گین	-4619
یشل	-4620
ینے	-4621
یوس	-4622
۔۔۔	-4623
▁بص	-4624
▁دت	-4625
▁رع	-4626
▁فک	-4627
▁نل	-4628
▁چپ	-4629
اتھن	-4630
ادیا	-4631
اسکر	-4632
الیف	-4633
انڈر	-4634
ايیے	-4635
ایات	-4636
برای	-4637
دلال	-4638
رحقی	-4639
سٹرڈ	-4640
غلطی	-4641
قریب	-4642
مقاب	-4643
ناصر	-4644
ندرہ	-4645
ندوں	-4646
ونوں	-4647
کووچ	-4648
یداد	-4649
یلین	-4650
یمور	-4651
▁ارش	-4652
▁اسم	-4653
▁اشی	-4654
▁الت	-4655
▁الہ	-4656
▁انٹ	-4657
▁اکھ	-4658
▁اید	-4659
▁بام	-4660
▁برو	-4661
▁بزم	-4662
▁تڑپ	-4663
▁جاے	-4664
▁جدت	-4665
▁حاض	-4666
▁حجم	-4667
▁حسب	-4668
▁خوں	-4669
▁درج	-4670
▁دوڑ	-4671
▁دی۔	-4672
▁رشک	-4673
▁روپ	-4674
▁زہر	-4675
▁سان	-4676
▁سحر	-4677
▁سوا	-4678
▁سود	-4679
▁شرک	-4680
▁عدل	-4681
▁فقہ	-4682
▁قبر	-4683
▁قید	-4684
▁لگو	-4685
▁لیٹ	-4686
▁مشق	-4687
▁مصن	-4688
▁مٹھ	-4689
▁میک	-4690
▁نان	-4691
▁نون	-4692
▁نوے	-4693
▁نیر	-4694
▁وزر	-4695
▁ٹرک	-4696
▁پرا	-4697
▁پوڈ	-4698
▁پکو	-4699
▁پہل	-4700
▁ڈبل	-4701
▁کال	-4702
▁کلہ	-4703
▁کود	-4704
▁کور	-4705
▁کہو	-4706
▁گرہ	-4707
▁ھیں	-4708
▁ہوش	-4709
▁ہٹا	-4710
▁ہیم	-4711
▁ہیڈ	-4712
اسکتا	-4713
ايسنس	-4714
ايیں۔	-4715
دورفت	-4716
ریباں	-4717
ونٹتا	-4718
کھلتا	-4719
یندرا	-4720
▁ابلا	-4721
▁اترے	-4722
▁اتی۔	-4723
▁اجتہ	-4724
▁اسکی	-4725
▁اماں	-4726
▁انڈہ	-4727
▁اونٹ	-4728
▁اونچ	-4729
▁ايیڈ	-4730
▁اکمل	-4731
▁ایشن	-4732
▁بڑھے	-4733
▁بکرے	-4734
▁تابع	-4735
▁تغیر	-4736
▁توکل	-4737
▁تیرہ	-4738
▁تیری	-4739
▁جنوں	-4740
▁جھاگ	-4741
▁حدیث	-4742
▁حصوں	-4743
▁خالص	-4744
▁خصلت	-4745
▁دادا	-4746
▁دانت	-4747
▁دماغ	-4748
▁دودھ	-4749
▁رشتے	-4750
▁رويے	-4751
▁رہنم	-4752
▁زخمی	-4753
▁زرعی	-4754
▁زوال	-4755
▁ساحل	-4756
▁سفید	-4757
▁سفیر	-4758
▁سوات	-4759
▁سٹاف	-4760
▁شخصی	-4761
▁شعبہ	-4762
▁شوبز	-4763
▁صدور	-4764
▁طبقے	-4765
▁طعام	-4766
▁عاصم	-4767
▁عذاب	-4768
▁عملا	-4769
▁عیاں	-4770
▁فتنہ	-4771
▁فساد	-4772
▁قاہد	-4773
▁لڑکی	-4774
▁لیبر	-4775
▁مبار	-4776
▁محیط	-4777
▁مرتے	-4778
▁مرزا	-4779
▁معنی	-4780
▁معین	-4781
▁مقدر	-4782
▁مووی	-4783
▁موٹر	-4784
▁میکس	-4785
▁نرگس	-4786
▁نصاب	-4787
▁نعرے	-4788
▁ننھے	-4789
▁پالا	-4790
▁پروا	-4791
▁پریس	-4792
▁پلیٹ	-4793
▁پڑیں	-4794
▁پیشہ	-4795
▁پیہم	-4796
▁ڈالی	-4797
▁ڈیٹا	-4798
▁کاغذ	-4799
▁کلاں	-4800
▁کھلی	-4801
▁کھلے	-4802
▁کیاج	-4803
▁گردش	-4804
▁گرنے	-4805
▁گزری	-4806
▁ھمیں	-4807
▁ہمسا	-4808
▁ہولڈ	-4809
رحقیقت	-4810
سمبرای	-4811
▁اتفاق	-4812
▁اجايے	-4813
▁اجراء	-4814
▁ارتھر	-4815
▁اسامہ	-4816
▁اسپین	-4817
▁اعجاز	-4818
▁امتیا	-4819
▁امریت	-4820
▁اولین	-4821
▁اکیلے	-4822
▁بارڈر	-4823
▁بازوں	-4824
▁بدنام	-4825
▁برايے	-4826
▁بندوں	-4827
▁بڑھتے	-4828
▁بیزار	-4829
▁بیٹھی	-4830
▁تعریف	-4831
▁تفصیل	-4832
▁تقاضے	-4833
▁تناظر	-4834
▁توحید	-4835
▁تھاپا	-4836
▁تھوڑے	-4837
▁تھیٹر	-4838
▁جزاير	-4839
▁جگہیں	-4840
▁دايمی	-4841
▁دلاتا	-4842
▁دیانت	-4843
▁رابطے	-4844
▁رومان	-4845
▁روکنے	-4846
▁زاویہ	-4847
▁سٹیٹس	-4848
▁شامیں	-4849
▁صحافی	-4850
▁صفايی	-4851
▁صوبوں	-4852
▁عموما	-4853
▁عمومی	-4854
▁فلسفی	-4855
▁فکریہ	-4856
▁فکسنگ	-4857
▁لاٹھی	-4858
▁لطیفہ	-4859
▁مایوس	-4860
▁متنوع	-4861
▁متوجہ	-4862
▁مخلوق	-4863
▁مطلوب	-4864
▁معجزے	-4865
▁منقطع	-4866
▁مہینے	-4867
▁نامور	-4868
▁نظارہ	-4869
▁نکلتے	-4870
▁ویمنز	-4871
▁وینٹی	-4872
▁پليیر	-4873
▁پندرہ	-4874
▁پچھلی	-4875
▁چلانے	-4876
▁ڈالتے	-4877
▁ڈھاکہ	-4878
▁کانسی	-4879
▁کراٹے	-4880
▁کررہی	-4881
▁کمیشن	-4882
▁کويلہ	-4883
▁کیمرے	-4884
▁گجرات	-4885
▁گزارو	-4886
▁گلوبل	-4887
▁ہارون	-4888
▁ہورہا	-4889
▁ہورہی	-4890
▁ہوچکی	-4891
▁ہوگا۔	-4892
▁ہٹانے	-4893
▁یافتہ	-4894
▁احتیاط	-4895
▁اسٹايل	-4896
▁اشتہار	-4897
▁اشیانہ	-4898
▁اصلاحی	-4899
▁اعصابی	-4900
▁اٹھاتی	-4901
▁اٹھاتے	-4902
▁اٹھايے	-4903
▁برامدی	-4904
▁برخلاف	-4905
▁بھگتنی	-4906
▁تمہارے	-4907
▁تنخواہ	-4908
▁جذباتی	-4909
▁جوکووچ	-4910
▁خریدنے	-4911
▁دارانہ	-4912
▁دايروں	-4913
▁دروازے	-4914
▁دنیايے	-4915
▁رجسٹرڈ	-4916
▁روبوٹس	-4917
▁روزانہ	-4918
▁روزگار	-4919
▁ریاستی	-4920
▁سالانہ	-4921
▁سلیمان	-4922
▁شخصیات	-4923
▁شکایات	-4924
▁طاقتیں	-4925
▁لايسنس	-4926
▁لکھاری	-4927
▁منڈیوں	-4928
▁مہربان	-4929
▁نکالنا	-4930
▁پاناما	-4931
▁پروپیگ	-4932
▁پہاڑوں	-4933
▁پیچھے۔	-4934
▁چھوڑنے	-4935
▁چھپانے	-4936
▁کروشیا	-4937
▁کمپنیز	-4938
▁کوالیف	-4939
▁کھانوں	-4940
▁کھیلنے	-4941
▁گنجايش	-4942
▁گواسکر	-4943
▁ہوسکتا	-4944
▁اداکاری	-4945
▁استدلال	-4946
▁امدورفت	-4947
▁اندھیرا	-4948
▁انقلابی	-4949
▁جايیداد	-4950
▁درحقیقت	-4951
▁رجحانات	-4952
▁مشروبات	-4953
▁مہمانوں	-4954
▁میراتھن	-4955
▁نفسیاتی	-4956
▁پروفیسر	-4957
▁پہنچایا	-4958
▁ڈرايیور	-4959
▁کارنامہ	-4960
▁گھونٹتا	-4961
▁ہوجايیں	-4962
▁ریفریجری	-4963
▁پارلیمنٹ	-4964
▁پیٹرولیم	-4965
▁کھجیندرا	-4966
سمبرایجنسی	-4967
▁فیفاورلڈکپ	-4968
▁پاکستانیوں	-4969
▁کبھارکھلتا	-4970
بخ	-4971
شو	-4972
مٹ	-4973
يه	-4974
اتر	-4975
افر	-4976
دیب	-4977
دیق	-4978
لاو	-4979
یلی	-4980
▁بش	-4981
▁رگ	-4982
▁سگ	-4983
تانی	-4984
دايی	-4985
مجھے	-4986
یریت	-4987
شواہد	-4988
مینان	-4989
▁ادیب	-4990
▁امان	-4991
▁بریک	-4992
▁بگاڑ	-4993
▁بھرے	-4994
▁جواز	-4995
▁سیزن	-4996
▁ظالم	-4997
▁عليه	-4998
▁عمان	-4999
▁مجال	-5000
▁مردہ	-5001
▁مشکو	-5002
▁نیند	-5003
▁نیوز	-5004
▁وافر	-5005
▁وڈیو	-5006
▁گلشن	-5007
▁ہمار	-5008
▁تسلسل	-5009
▁تصدیق	-5010
▁سلطان	-5011
▁معافی	-5012
▁معکوس	-5013
▁منتقل	-5014
▁نگران	-5015
▁چینلز	-5016
▁گزارا	-5017
▁اسپتال	-5018
▁افتتاح	-5019
▁سمجھیں	-5020
▁لیجیے۔	-5021
▁مضامین	-5022
▁پہچانا	-5023
▁ڈپریشن	-5024
▁کپتانی	-5025
▁اطمینان	-5026
▁تیاریاں	-5027
▁اورشواہد	-5028
بس	-5029
تن	-5030
جع	-5031
حق	-5032
رن	-5033
زش	-5034
ظہ	-5035
مح	-5036
وح	-5037
وخ	-5038
وپ	-5039
يا	-5040
چن	-5041
ڑو	-5042
ہو	-5043
▁ں	-5044
اسو	-5045
اصر	-5046
افل	-5047
اڑا	-5048
اہو	-5049
باں	-5050
بدی	-5051
تاز	-5052
جام	-5053
جاو	-5054
جوع	-5055
ذول	-5056
رام	-5057
روح	-5058
زاء	-5059
زوں	-5060
زیر	-5061
سیل	-5062
شنگ	-5063
طین	-5064
فوج	-5065
قود	-5066
مید	-5067
نڈی	-5068
ورے	-5069
وسے	-5070
ونت	-5071
ونز	-5072
ونگ	-5073
ٹلر	-5074
پاٹ	-5075
پنگ	-5076
کات	-5077
کیو	-5078
گرد	-5079
ہام	-5080
ینگ	-5081
یکی	-5082
▁سخ	-5083
▁قز	-5084
▁مے	-5085
▁کد	-5086
اراج	-5087
ازیل	-5088
اسیت	-5089
افیل	-5090
التو	-5091
انڈز	-5092
اویر	-5093
اڑھے	-5094
اکچھ	-5095
باحث	-5096
بايل	-5097
جیٹل	-5098
دیشہ	-5099
رادف	-5100
ردید	-5101
رونی	-5102
زمان	-5103
شیدہ	-5104
طرنج	-5105
ظرین	-5106
قاضی	-5107
لانا	-5108
لیمز	-5109
ميیر	-5110
نبول	-5111
ندیہ	-5112
وریس	-5113
وقوف	-5114
ومیت	-5115
ونچر	-5116
ونکا	-5117
وٹان	-5118
يیرز	-5119
ٹايی	-5120
کواس	-5121
▁ابن	-5122
▁اتش	-5123
▁انف	-5124
▁ايل	-5125
▁اڑے	-5126
▁اکے	-5127
▁بجھ	-5128
▁برٹ	-5129
▁بسر	-5130
▁بلی	-5131
▁تجز	-5132
▁ترا	-5133
▁تھک	-5134
▁جنت	-5135
▁جنی	-5136
▁جوں	-5137
▁جگر	-5138
▁جھٹ	-5139
▁حسی	-5140
▁حلے	-5141
▁دڑو	-5142
▁دھک	-5143
▁رحم	-5144
▁سرم	-5145
▁سوي	-5146
▁شکن	-5147
▁ضمن	-5148
▁عدو	-5149
▁عیا	-5150
▁عیس	-5151
▁فاص	-5152
▁قلت	-5153
▁قمر	-5154
▁لاش	-5155
▁لخت	-5156
▁لوح	-5157
▁لی۔	-5158
▁ماد	-5159
▁مخم	-5160
▁مزہ	-5161
▁مسل	-5162
▁معص	-5163
▁ملت	-5164
▁منع	-5165
▁منگ	-5166
▁موج	-5167
▁میا	-5168
▁ندی	-5169
▁نذر	-5170
▁نشو	-5171
▁وعظ	-5172
▁وہم	-5173
▁ٹاس	-5174
▁ٹھک	-5175
▁پاش	-5176
▁پرت	-5177
▁پرچ	-5178
▁پہ۔	-5179
▁چال	-5180
▁چاٹ	-5181
▁کاا	-5182
▁کتے	-5183
▁کشش	-5184
▁کٹو	-5185
▁کھچ	-5186
▁کیچ	-5187
▁گیل	-5188
▁ہال	-5189
▁ہوے	-5190
افراد	-5191
انسنگ	-5192
انیات	-5193
بادلہ	-5194
ریکٹر	-5195
کریسی	-5196
▁ابلے	-5197
▁ارہا	-5198
▁ارہی	-5199
▁اسما	-5200
▁اسکر	-5201
▁اشیا	-5202
▁الات	-5203
▁البر	-5204
▁امدن	-5205
▁انتھ	-5206
▁اورب	-5207
▁اپشن	-5208
▁ایات	-5209
▁ایام	-5210
▁بازو	-5211
▁باطل	-5212
▁بانی	-5213
▁باور	-5214
▁باڈی	-5215
▁باکس	-5216
▁بجھے	-5217
▁بحری	-5218
▁برہم	-5219
▁بہتا	-5220
▁تباہ	-5221
▁تعطل	-5222
▁تلخی	-5223
▁تنہا	-5224
▁توبہ	-5225
▁جاہل	-5226
▁جذبہ	-5227
▁جذبے	-5228
▁جمود	-5229
▁جناح	-5230
▁جويی	-5231
▁جھوم	-5232
▁جیتا	-5233
▁حاوی	-5234
▁حمید	-5235
▁حکام	-5236
▁خاصا	-5237
▁خانی	-5238
▁داير	-5239
▁دعوے	-5240
▁دیدہ	-5241
▁دیشی	-5242
▁رايج	-5243
▁رقوم	-5244
▁رنگی	-5245
▁روکا	-5246
▁ریلی	-5247
▁زخرف	-5248
▁ستون	-5249
▁سران	-5250
▁سلوک	-5251
▁سنتے	-5252
▁سوار	-5253
▁سٹیج	-5254
▁سیلز	-5255
▁سیلم	-5256
▁سینٹ	-5257
▁سینڈ	-5258
▁سینی	-5259
▁شمسی	-5260
▁شیشے	-5261
▁طلبا	-5262
▁عادی	-5263
▁عددی	-5264
▁عزیز	-5265
▁فاسٹ	-5266
▁فیصد	-5267
▁قابو	-5268
▁لالی	-5269
▁لڑنے	-5270
▁لکھی	-5271
▁لینی	-5272
▁لیور	-5273
▁لیکر	-5274
▁مثلا	-5275
▁مرجع	-5276
▁مسلہ	-5277
▁معمہ	-5278
▁ممبر	-5279
▁منظم	-5280
▁منفی	-5281
▁موين	-5282
▁مہیا	-5283
▁نثار	-5284
▁ندیم	-5285
▁نصیح	-5286
▁نچلے	-5287
▁نڈال	-5288
▁نکاح	-5289
▁وارد	-5290
▁ویزے	-5291
▁پاتے	-5292
▁پارک	-5293
▁پبلک	-5294
▁پرکھ	-5295
▁پلڑا	-5296
▁پڑھا	-5297
▁پڑے۔	-5298
▁پیرو	-5299
▁چرچا	-5300
▁چلتن	-5301
▁چلے۔	-5302
▁چھپا	-5303
▁چیمہ	-5304
▁ڈالے	-5305
▁ڈاکو	-5306
▁ڈویل	-5307
▁کردے	-5308
▁کریب	-5309
▁کولم	-5310
▁کھاو	-5311
▁کھچا	-5312
▁کھیت	-5313
▁کیسا	-5314
▁گانا	-5315
▁گسار	-5316
▁گہری	-5317
▁ہايی	-5318
▁ہفتہ	-5319
▁ہنسی	-5320
▁ہوشی	-5321
▁ہٹلر	-5322
▁یارو	-5323
▁یارک	-5324
▁یوسف	-5325
جنٹاين	-5326
رانداز	-5327
پیشلسٹ	-5328
یوسینا	-5329
▁ابلاغ	-5330
▁ابہام	-5331
▁اثاثے	-5332
▁اجاگر	-5333
▁اجزاء	-5334
▁اجنبی	-5335
▁اداری	-5336
▁ارتقا	-5337
▁اسباب	-5338
▁اسپاٹ	-5339
▁اشارہ	-5340
▁اعادہ	-5341
▁اقامہ	-5342
▁الدین	-5343
▁انجری	-5344
▁انڈیل	-5345
▁اوراس	-5346
▁اوروہ	-5347
▁اولمپ	-5348
▁بانڈز	-5349
▁بايیں	-5350
▁برتری	-5351
▁برہنہ	-5352
▁بنانی	-5353
▁بندھے	-5354
▁بکواس	-5355
▁بہادر	-5356
▁بیرون	-5357
▁بیمبا	-5358
▁تجدید	-5359
▁تردید	-5360
▁تسلیم	-5361
▁تصحیح	-5362
▁تماشا	-5363
▁توازن	-5364
▁تکمیل	-5365
▁ثانوی	-5366
▁جانے۔	-5367
▁جرنیل	-5368
▁جوتوں	-5369
▁حقانی	-5370
▁خواہی	-5371
▁دوبيی	-5372
▁دیتے۔	-5373
▁ذخاير	-5374
▁رافیل	-5375
▁رايیڈ	-5376
▁ردعمل	-5377
▁رہتی۔	-5378
▁زلزلہ	-5379
▁ساڑھے	-5380
▁ستايش	-5381
▁سرخرو	-5382
▁سوکھے	-5383
▁سکتا۔	-5384
▁سیدھا	-5385
▁سیدھے	-5386
▁شطرنج	-5387
▁صداقت	-5388
▁طورپہ	-5389
▁عزیمت	-5390
▁عناصر	-5391
▁عندیہ	-5392
▁غلامی	-5393
▁فردوس	-5394
▁فلورو	-5395
▁فیملی	-5396
▁قادری	-5397
▁قدامت	-5398
▁قریشی	-5399
▁قوايد	-5400
▁لکھتا	-5401
▁لگادو	-5402
▁لیجيے	-5403
▁مابعد	-5404
▁مباحث	-5405
▁مبذول	-5406
▁مجروح	-5407
▁مسیحی	-5408
▁مشاہد	-5409
▁مغلوب	-5410
▁مفقود	-5411
▁ملالہ	-5412
▁ممتاز	-5413
▁منسلک	-5414
▁منقسم	-5415
▁میٹرک	-5416
▁ناشتے	-5417
▁نکلتا	-5418
▁نکلنے	-5419
▁نکھار	-5420
▁واشنگ	-5421
▁ویرات	-5422
▁پارسی	-5423
▁پریمی	-5424
▁پسینہ	-5425
▁پٹرول	-5426
▁پکانے	-5427
▁چلاتا	-5428
▁چیمبر	-5429
▁ڈیوٹی	-5430
▁کرايے	-5431
▁کرنا۔	-5432
▁کلنڈر	-5433
▁کلورو	-5434
▁کنارے	-5435
▁کوچنگ	-5436
▁کھاتا	-5437
▁کھولا	-5438
▁کےليے	-5439
▁گھیرا	-5440
▁ہوگی۔	-5441
▁ہڈیوں	-5442
▁اجنبیت	-5443
▁ارضیات	-5444
▁الطبیع	-5445
▁امارات	-5446
▁اندیشہ	-5447
▁اوراگر	-5448
▁اٹھارہ	-5449
▁ایسوسی	-5450
▁بادشاہ	-5451
▁بھوٹان	-5452
▁بیوقوف	-5453
▁تصاویر	-5454
▁تیندوا	-5455
▁تیندوے	-5456
▁جسمانی	-5457
▁حساسیت	-5458
▁خریدنا	-5459
▁خوشونت	-5460
▁دانستہ	-5461
▁ساتویں	-5462
▁سبزیاں	-5463
▁سماٹرا	-5464
▁طاقتور	-5465
▁عیسايی	-5466
▁فراہمی	-5467
▁فرمايے	-5468
▁فلسطین	-5469
▁قربانی	-5470
▁لاکھوں	-5471
▁لگتاہے	-5472
▁مانیٹر	-5473
▁مترادف	-5474
▁متقاضی	-5475
▁ملاحظہ	-5476
▁موبايل	-5477
▁مہاراج	-5478
▁میزبان	-5479
▁نادانی	-5480
▁ناظرین	-5481
▁ٹمپرنگ	-5482
▁پرفارم	-5483
▁پليیرز	-5484
▁پوشیدہ	-5485
▁چاولوں	-5486
▁چاہيیں	-5487
▁ڈھونڈو	-5488
▁ڈیجیٹل	-5489
▁کشمیری	-5490
▁کمانڈر	-5491
▁گزارتا	-5492
▁گزارنا	-5493
▁گھومتی	-5494
▁گیندوں	-5495
▁ہنگامی	-5496
▁ہوچکی۔	-5497
وروکریسی	-5498
▁استنبول	-5499
▁الجیریا	-5500
▁امتیازی	-5501
▁ایساکچھ	-5502
▁ایڈونچر	-5503
▁خانیوال	-5504
▁خرابیوں	-5505
▁سرانجام	-5506
▁سنجیدگی	-5507
▁شرمندگی	-5508
▁شیوسینا	-5509
▁عدالتیں	-5510
▁لسانیات	-5511
▁مصیبتوں	-5512
▁میکسویل	-5513
▁نشوونما	-5514
▁پانچواں	-5515
▁پریميیر	-5516
▁ڈرامايی	-5517
▁کھلکھلا	-5518
▁ارجنٹاين	-5519
▁اسپیشلسٹ	-5520
▁بلوچستان	-5521
▁بےاختیار	-5522
▁سرگرمیاں	-5523
▁سیاستدان	-5524
▁مٹھايیاں	-5525
▁چیمپیينز	-5526
▁ڈايریکٹر	-5527
▁ڈویلپمنٹ	-5528
▁کوالیفايی	-5529
ايط	-5530
▁ثق	-5531
▁رن	-5532
▁شے	-5533
الاب	-5534
▁اوپ	-5535
▁بوس	-5536
▁لاي	-5537
▁لیڈ	-5538
▁مکی	-5539
▁نوں	-5540
▁چور	-5541
▁گنے	-5542
▁گیر	-5543
▁الجھ	-5544
▁برپا	-5545
▁تربی	-5546
▁تھوک	-5547
▁خالد	-5548
▁شعاع	-5549
▁لالچ	-5550
▁لگا۔	-5551
▁پراس	-5552
▁گھڑی	-5553
▁بلاول	-5554
▁تالاب	-5555
▁جانیے	-5556
▁خدمات	-5557
▁خریدا	-5558
▁خیریت	-5559
▁دعاگو	-5560
▁سیدنا	-5561
▁سیدھی	-5562
▁شرايط	-5563
▁محبوب	-5564
▁نجانے	-5565
▁یونین	-5566
▁بینکوں	-5567
▁ثقافتی	-5568
▁کھیلیں	-5569
▁گناہوں	-5570
▁سیاستدا	-5571
▁پروازوں	-5572
▁انتظامات	-5573
▁اوپریٹنگ	-5574
▁ایکسپورٹ	-5575
1.	-5576
3.	-5577
تع	-5578
خذ	-5579
صت	-5580
ضب	-5581
قد	-5582
مس	-5583
یش	-5584
▁1	-5585
اتج	-5586
اتع	-5587
اجو	-5588
ادت	-5589
ارٹ	-5590
ازی	-5591
اسم	-5592
اقب	-5593
الر	-5594
انٹ	-5595
ايض	-5596
اٹا	-5597
اکت	-5598
ایف	-5599
بحث	-5600
جاب	-5601
حدہ	-5602
خرا	-5603
خیص	-5604
دتی	-5605
راق	-5606
ربا	-5607
رسن	-5608
رپل	-5609
ری۔	-5610
سبت	-5611
سبز	-5612
سکے	-5613
سین	-5614
طرح	-5615
ظمی	-5616
عدے	-5617
عظم	-5618
فٹی	-5619
قیر	-5620
لوگ	-5621
لیک	-5622
مول	-5623
مکن	-5624
نگے	-5625
ونو	-5626
ينا	-5627
ٹال	-5628
ٹنگ	-5629
پٹن	-5630
چتا	-5631
ڈرر	-5632
ڈشی	-5633
ڑلے	-5634
کام	-5635
گاہ	-5636
گوا	-5637
ھری	-5638
ھیے	-5639
ہرا	-5640
ہمی	-5641
ہین	-5642
یاہ	-5643
یرت	-5644
یری	-5645
یيے	-5646
▁جد	-5647
▁خل	-5648
▁دپ	-5649
▁وظ	-5650
▁وٹ	-5651
▁ٹپ	-5652
▁پے	-5653
▁کع	-5654
▁کک	-5655
▁ھا	-5656
▁ھم	-5657
ابیر	-5658
احیل	-5659
اربہ	-5660
اریل	-5661
ازنہ	-5662
الیہ	-5663
امید	-5664
اپور	-5665
اگيی	-5666
اہدہ	-5667
باپے	-5668
ترکہ	-5669
تیں۔	-5670
جايز	-5671
جمنٹ	-5672
جوعہ	-5673
حادث	-5674
رافت	-5675
رمیں	-5676
شہیر	-5677
صغیر	-5678
ضمام	-5679
طہیر	-5680
عیات	-5681
فتوں	-5682
لاوہ	-5683
لشیم	-5684
لمند	-5685
لیان	-5686
ماری	-5687
معطل	-5688
نامک	-5689
نمنٹ	-5690
نڈول	-5691
نگوں	-5692
واری	-5693
وانی	-5694
وبست	-5695
وشکا	-5696
ٹروے	-5697
ٹریٹ	-5698
ٹیول	-5699
پہنچ	-5700
کروں	-5701
کیشن	-5702
گانہ	-5703
گریس	-5704
گولی	-5705
ہیں۔	-5706
▁ابو	-5707
▁ادم	-5708
▁اطف	-5709
▁الا	-5710
▁انو	-5711
▁اپن	-5712
▁اڑا	-5713
▁بحر	-5714
▁بخش	-5715
▁برے	-5716
▁بلغ	-5717
▁بمب	-5718
▁بنت	-5719
▁بچن	-5720
▁بہم	-5721
▁تلے	-5722
▁تہی	-5723
▁جزا	-5724
▁جلا	-5725
▁جلو	-5726
▁جھی	-5727
▁حیی	-5728
▁خلو	-5729
▁داو	-5730
▁داڑ	-5731
▁دلی	-5732
▁ديے	-5733
▁دہل	-5734
▁دید	-5735
▁راک	-5736
▁ربا	-5737
▁رقص	-5738
▁زپر	-5739
▁زیب	-5740
▁سبس	-5741
▁سلا	-5742
▁سچی	-5743
▁شاد	-5744
▁شعر	-5745
▁شیر	-5746
▁ضیا	-5747
▁طبق	-5748
▁عبر	-5749
▁غنی	-5750
▁فاط	-5751
▁فجر	-5752
▁فعل	-5753
▁فیک	-5754
▁قزح	-5755
▁قوس	-5756
▁لاط	-5757
▁لاچ	-5758
▁لتا	-5759
▁لوں	-5760
▁لکس	-5761
▁مرض	-5762
▁مرچ	-5763
▁مرہ	-5764
▁منح	-5765
▁موڈ	-5766
▁نرم	-5767
▁نشر	-5768
▁نمٹ	-5769
▁نہی	-5770
▁نیم	-5771
▁واہ	-5772
▁وحی	-5773
▁ولی	-5774
▁ونگ	-5775
▁ٹوپ	-5776
▁پر۔	-5777
▁پشت	-5778
▁پنا	-5779
▁چوٹ	-5780
▁ڈٹے	-5781
▁کاٹ	-5782
▁کتب	-5783
▁کرت	-5784
▁کرچ	-5785
▁کفر	-5786
▁کوم	-5787
▁کھٹ	-5788
▁گان	-5789
▁گلو	-5790
▁گمب	-5791
▁گون	-5792
▁گٹھ	-5793
▁گھس	-5794
▁گھٹ	-5795
▁ہاس	-5796
▁ہتھ	-5797
▁ہمہ	-5798
▁ہیر	-5799
▁یوم	-5800
اتعلق	-5801
ادران	-5802
اراڈو	-5803
اظہار	-5804
انونی	-5805
انیاں	-5806
اونٹس	-5807
ايشیا	-5808
اہدوں	-5809
بودار	-5810
حکومت	-5811
ریسنگ	-5812
فارمر	-5813
فرادی	-5814
وايیں	-5815
وظہبی	-5816
ونچال	-5817
ينایم	-5818
پولین	-5819
ڈسٹری	-5820
ہارون	-5821
▁اتار	-5822
▁احمق	-5823
▁ادھا	-5824
▁ادھے	-5825
▁اذان	-5826
▁اسپن	-5827
▁انار	-5828
▁انجم	-5829
▁انکم	-5830
▁انکی	-5831
▁انھی	-5832
▁اورخ	-5833
▁اولا	-5834
▁ايیر	-5835
▁اگلی	-5836
▁ایما	-5837
▁بالا	-5838
▁باہم	-5839
▁بدلو	-5840
▁بساط	-5841
▁بناو	-5842
▁بندش	-5843
▁بندی	-5844
▁بیاہ	-5845
▁بیرل	-5846
▁بیوی	-5847
▁بیٹا	-5848
▁تالا	-5849
▁تبلی	-5850
▁تجرب	-5851
▁تسلی	-5852
▁تمیز	-5853
▁تیرا	-5854
▁ثبوت	-5855
▁جادو	-5856
▁جارج	-5857
▁جاوں	-5858
▁جایا	-5859
▁جسٹس	-5860
▁جمیل	-5861
▁جیتی	-5862
▁حریف	-5863
▁حلال	-5864
▁حلقے	-5865
▁خانے	-5866
▁خاکے	-5867
▁خطیر	-5868
▁خفیہ	-5869
▁خوان	-5870
▁دانہ	-5871
▁درجے	-5872
▁دلوں	-5873
▁رانا	-5874
▁رشید	-5875
▁روتے	-5876
▁زیدی	-5877
▁سالہ	-5878
▁سانپ	-5879
▁ساين	-5880
▁سباب	-5881
▁سستا	-5882
▁سستی	-5883
▁سستے	-5884
▁سکون	-5885
▁سہگل	-5886
▁سہی۔	-5887
▁شرما	-5888
▁ششدر	-5889
▁شکری	-5890
▁صحبت	-5891
▁طاہر	-5892
▁طبقہ	-5893
▁طلسم	-5894
▁ظہور	-5895
▁عصری	-5896
▁عظمی	-5897
▁علوم	-5898
▁علیم	-5899
▁عہدہ	-5900
▁عہدے	-5901
▁غدار	-5902
▁فرصت	-5903
▁فریز	-5904
▁فرین	-5905
▁فعال	-5906
▁فواد	-5907
▁فہمی	-5908
▁قادر	-5909
▁قاری	-5910
▁لايی	-5911
▁لڑنا	-5912
▁لگنی	-5913
▁لگی۔	-5914
▁ماخذ	-5915
▁ماری	-5916
▁مالے	-5917
▁مسلک	-5918
▁معمر	-5919
▁ملتے	-5920
▁ميٹر	-5921
▁مکھی	-5922
▁مکین	-5923
▁میلہ	-5924
▁مینہ	-5925
▁میٹر	-5926
▁ناتج	-5927
▁نادہ	-5928
▁نامہ	-5929
▁نايب	-5930
▁نعمت	-5931
▁نقشہ	-5932
▁نمبر	-5933
▁نواک	-5934
▁نکتہ	-5935
▁نکسن	-5936
▁نیاز	-5937
▁واقف	-5938
▁وردی	-5939
▁ورزش	-5940
▁وعدے	-5941
▁وقتی	-5942
▁ویمن	-5943
▁ٹرپل	-5944
▁ٹکرا	-5945
▁پرور	-5946
▁پرچم	-5947
▁پزیر	-5948
▁پناہ	-5949
▁پڑنے	-5950
▁پڑی۔	-5951
▁پہنا	-5952
▁پینے	-5953
▁چادر	-5954
▁چاھے	-5955
▁چکی۔	-5956
▁چھپے	-5957
▁ڈھول	-5958
▁ڈیری	-5959
▁ڈیزل	-5960
▁ڈیوس	-5961
▁کاسٹ	-5962
▁کافر	-5963
▁کامط	-5964
▁کوان	-5965
▁کويے	-5966
▁کھان	-5967
▁کہا۔	-5968
▁کیسز	-5969
▁گاہے	-5970
▁گذار	-5971
▁گراں	-5972
▁گرنا	-5973
▁گریڈ	-5974
▁گزرا	-5975
▁گولی	-5976
▁گھسا	-5977
▁گیند	-5978
▁گینڈ	-5979
▁ہجرت	-5980
▁ہلچل	-5981
▁ہوٹل	-5982
▁یکسر	-5983
نڈولکر	-5984
ڈشیڈنگ	-5985
یالوجی	-5986
▁ادھار	-5987
▁اساسی	-5988
▁اسٹیل	-5989
▁اسکول	-5990
▁اصرار	-5991
▁اعظمی	-5992
▁اقدام	-5993
▁التجا	-5994
▁الناس	-5995
▁امراض	-5996
▁انجین	-5997
▁اٹھتا	-5998
▁اپنوں	-5999
▁ایدھی	-6000
▁باغات	-6001
▁بتايی	-6002
▁بردار	-6003
▁بصیرت	-6004
▁بیدار	-6005
▁بیمار	-6006
▁بیندر	-6007
▁بیوشن	-6008
▁بیٹری	-6009
▁بیچنے	-6010
▁ترغیب	-6011
▁ترمیم	-6012
▁تشخیص	-6013
▁تشہیر	-6014
▁تطہیر	-6015
▁توسیع	-6016
▁توہین	-6017
▁تکرار	-6018
▁تیلگو	-6019
▁تیمور	-6020
▁جاسکے	-6021
▁جانتی	-6022
▁جاگنے	-6023
▁جہالت	-6024
▁حادثہ	-6025
▁حالیہ	-6026
▁حملوں	-6027
▁خاتمہ	-6028
▁خاتمے	-6029
▁خاصیت	-6030
▁خبریں	-6031
▁خریدی	-6032
▁خستگی	-6033
▁درجات	-6034
▁درستی	-6035
▁دشمنی	-6036
▁دوھری	-6037
▁دپیکا	-6038
▁دھونے	-6039
▁دھوکا	-6040
▁دھڑلے	-6041
▁دہانی	-6042
▁دیوتا	-6043
▁دیکھے	-6044
▁راتوں	-6045
▁راحیل	-6046
▁رسالت	-6047
▁رشتوں	-6048
▁روابط	-6049
▁رہايش	-6050
▁رہیں۔	-6051
▁ریاضی	-6052
▁سبحان	-6053
▁سربین	-6054
▁سرسبز	-6055
▁سرميی	-6056
▁سرکار	-6057
▁سزاوں	-6058
▁سوچیں	-6059
▁سپاٹا	-6060
▁سکالر	-6061
▁سکندر	-6062
▁سگریٹ	-6063
▁سیٹھی	-6064
▁شراکت	-6065
▁شریف۔	-6066
▁شہادت	-6067
▁شہروں	-6068
▁صفحات	-6069
▁صنعتی	-6070
▁طیارہ	-6071
▁علماء	-6072
▁فاروق	-6073
▁فرايض	-6074
▁فلاور	-6075
▁فیڈرر	-6076
▁قبايل	-6077
▁قبروں	-6078
▁قوتوں	-6079
▁مابصل	-6080
▁مارشل	-6081
▁مارکس	-6082
▁ماندہ	-6083
▁مبارک	-6084
▁متروک	-6085
▁متوقع	-6086
▁محافظ	-6087
▁مرحوم	-6088
▁مسیحا	-6089
▁مشروب	-6090
▁معرکہ	-6091
▁منافع	-6092
▁منعقد	-6093
▁ناریل	-6094
▁نافذہ	-6095
▁نکلے۔	-6096
▁نےمنی	-6097
▁وصولی	-6098
▁وٹامن	-6099
▁ویران	-6100
▁ٹیونز	-6101
▁پروفی	-6102
▁پنجرہ	-6103
▁پھینٹ	-6104
▁پیداو	-6105
▁پیرہن	-6106
▁چولہے	-6107
▁چھاپہ	-6108
▁چھلکے	-6109
▁ڈرامہ	-6110
▁کرارا	-6111
▁کرايی	-6112
▁کرگيے	-6113
▁کوستے	-6114
▁کھلنے	-6115
▁کینیا	-6116
▁گانوں	-6117
▁گاہوں	-6118
▁گرینڈ	-6119
▁گنجان	-6120
▁گورنر	-6121
▁گھروں	-6122
▁گھنٹہ	-6123
▁ہفتوں	-6124
▁ہنگری	-6125
▁ہونگی	-6126
▁ہیجان	-6127
▁اجتہاد	-6128
▁احترام	-6129
▁اردگرد	-6130
▁ازوریس	-6131
▁افریقا	-6132
▁افسانے	-6133
▁انتقام	-6134
▁انضمام	-6135
▁انوشکا	-6136
▁اٹھانے	-6137
▁اکنامک	-6138
▁باہرلے	-6139
▁بحفاظت	-6140
▁برصغیر	-6141
▁بلاگنگ	-6142
▁بچگانہ	-6143
▁بھرمار	-6144
▁بہادری	-6145
▁بہلایا	-6146
▁بیرونی	-6147
▁تاجروں	-6148
▁تدابیر	-6149
▁تمھارے	-6150
▁جنجوعہ	-6151
▁جولايی	-6152
▁خطايیں	-6153
▁دانشور	-6154
▁دکھانا	-6155
▁دیکھتی	-6156
▁ریٹاير	-6157
▁ریگولی	-6158
▁زلزلوں	-6159
▁زیادتی	-6160
▁زیربحث	-6161
▁سونالی	-6162
▁سونامی	-6163
▁شايستہ	-6164
▁شریفوں	-6165
▁صنعتوں	-6166
▁عقلمند	-6167
▁علیحدہ	-6168
▁عنقریب	-6169
▁لاتعلق	-6170
▁لاطینی	-6171
▁لانسنگ	-6172
▁مثالیں	-6173
▁مختاری	-6174
▁مزاحمت	-6175
▁مشاہدے	-6176
▁مشترکہ	-6177
▁ممبران	-6178
▁مناسبت	-6179
▁منافقت	-6180
▁موازنہ	-6181
▁موٹروے	-6182
▁مکالمہ	-6183
▁مینڈیٹ	-6184
▁میڈیکل	-6185
▁ناممکن	-6186
▁نمکیات	-6187
▁نپولین	-6188
▁واقعات	-6189
▁ٹورنٹو	-6190
▁ٹھہرے۔	-6191
▁پرامید	-6192
▁پگھلنا	-6193
▁پہنچتی	-6194
▁پیشیاں	-6195
▁کرلیتے	-6196
▁کروانے	-6197
▁کھاگيی	-6198
▁کیلشیم	-6199
▁گمبھیر	-6200
▁گیمبیا	-6201
▁ہنگامہ	-6202
▁ہوتاہے	-6203
▁ہوجاتی	-6204
▁ہوگیا۔	-6205
_2663063	-6206
▁ابوظہبی	-6207
▁احتیاطی	-6208
▁اسانیاں	-6209
▁انفرادی	-6210
▁انہوںنے	-6211
▁اورغلطی	-6212
▁اونچايی	-6213
▁اکاونٹس	-6214
▁اینڈرسن	-6215
▁برادران	-6216
▁بندوبست	-6217
▁بھونچال	-6218
▁ترجیحات	-6219
▁تعلیمات	-6220
▁خریداری	-6221
▁خوشبويے	-6222
▁رہنمايی	-6223
▁ریکارڈز	-6224
▁ریگستان	-6225
▁سنگاپور	-6226
▁طبیعیات	-6227
▁عدالتوں	-6228
▁فاتحانہ	-6229
▁فخرزمان	-6230
▁فراوانی	-6231
▁فنکاروں	-6232
▁فیسٹیول	-6233
▁ملايشیا	-6234
▁موضوعات	-6235
▁ناتجربہ	-6236
▁نصیحتیں	-6237
▁نمايندہ	-6238
▁ٹورنمنٹ	-6239
▁پریمیير	-6240
▁پٹرولیم	-6241
▁کااظہار	-6242
▁کارخانے	-6243
▁کانگریس	-6244
▁کنندگان	-6245
▁کولمبیا	-6246
▁کہانیاں	-6247
▁گریزمین	-6248
▁گھبراتے	-6249
▁ہسپانیہ	-6250
▁ہمسایوں	-6251
▁یہودیوں	-6252
ينایمباپے	-6253
▁اختیارات	-6254
▁اعتراضات	-6255
▁ایيرپورٹ	-6256
▁جاسکتاہے	-6257
▁خوشبودار	-6258
▁دیانتدار	-6259
▁راہنمايی	-6260
▁فلسفیانہ	-6261
▁لوڈشیڈنگ	-6262
▁مانیٹرنگ	-6263
▁میڈیاسیل	-6264
▁کریبیايی	-6265
▁کولاراڈو	-6266
▁انشاءاللہ	-6267
▁پروپیگنڈا	-6268
▁ہندوستانی	-6269
▁الطبیعیاتی	-6270
▁ايیڈیالوجی	-6271
▁ٹرانسفارمر	-6272
▁ریفریجریٹرز	-6273
▁چیمپينایمباپے	-6274
تاط	-6275
رشل	-6276
علم	-6277
فاف	-6278
ندے	-6279
نڈہ	-6280
کٹی	-6281
▁جغ	-6282
الله	-6283
بینہ	-6284
سمتی	-6285
میرے	-6286
▁ابر	-6287
▁جیو	-6288
▁دکر	-6289
▁عذر	-6290
▁فوڈ	-6291
▁لیم	-6292
جوہات	-6293
▁اکشے	-6294
▁بھوک	-6295
▁تامل	-6296
▁دھوپ	-6297
▁رہوں	-6298
▁شفاف	-6299
▁قرضے	-6300
▁قلیل	-6301
▁لکڑی	-6302
▁منڈی	-6303
▁نچوڑ	-6304
▁ٹانگ	-6305
▁پانا	-6306
▁پہنو	-6307
▁ڈکٹی	-6308
▁کالی	-6309
▁کانگ	-6310
▁کہیے	-6311
▁ہانگ	-6312
▁االله	-6313
▁اینکر	-6314
▁باہمت	-6315
▁بھاتی	-6316
▁تھامے	-6317
▁شکایت	-6318
▁قاعدہ	-6319
▁لمحوں	-6320
▁محتاط	-6321
▁مناتے	-6322
▁کمرشل	-6323
▁کھلنا	-6324
▁یادیں	-6325
▁ترتیبی	-6326
▁جغرافی	-6327
▁زبانیں	-6328
▁سردیوں	-6329
▁فرشتوں	-6330
▁فرمایا	-6331
▁لگايیں	-6332
▁موسموں	-6333
▁وجوہات	-6334
▁کابینہ	-6335
▁گریبان	-6336
▁ابتدايی	-6337
..	-6338
2.	-6339
6.	-6340
9.	-6341
تک	-6342
سي	-6343
عم	-6344
ٹک	-6345
چس	-6346
گٹ	-6347
اخر	-6348
ارب	-6349
ارض	-6350
اشی	-6351
ايک	-6352
اٹھ	-6353
برگ	-6354
بلے	-6355
بند	-6356
بوڈ	-6357
تیس	-6358
ثیر	-6359
جنگ	-6360
جیو	-6361
حسن	-6362
خلہ	-6363
درن	-6364
دلی	-6365
دھی	-6366
دیا	-6367
رون	-6368
ریس	-6369
ریل	-6370
سرو	-6371
سون	-6372
سیا	-6373
شات	-6374
شیخ	-6375
ضیہ	-6376
ظیر	-6377
عور	-6378
فرم	-6379
فیر	-6380
فین	-6381
قبل	-6382
لاب	-6383
لغت	-6384
لفظ	-6385
لٹن	-6386
لڈن	-6387
میض	-6388
ندی	-6389
نری	-6390
نٹے	-6391
وات	-6392
وبا	-6393
وزڈ	-6394
ولپ	-6395
ومک	-6396
وٹس	-6397
وٹو	-6398
ویم	-6399
الف	-6400
طفی	-6401
فکر	-6402
میہ	-6403
نڈز	-6404
نیک	-6405
ویٹ	-6406
يکا	-6407
يکن	-6408
ٹکس	-6409
پٹس	-6410
چیز	-6411
ڈان	-6412
ڈرز	-6413
ڈرچ	-6414
ڑان	-6415
کسی	-6416
کنے	-6417
کول	-6418
گرا	-6419
گيی	-6420
گیڈ	-6421
ھیں	-6422
یتا	-6423
یسے	-6424
یفہ	-6425
یلم	-6426
ینو	-6427
▁تپ	-6428
▁جک	-6429
▁خم	-6430
▁رب	-6431
▁رف	-6432
▁سز	-6433
▁ضو	-6434
▁قذ	-6435
▁قط	-6436
▁هو	-6437
▁هي	-6438
▁ود	-6439
▁يہ	-6440
▁يے	-6441
▁ٹف	-6442
▁ٹہ	-6443
▁پٹ	-6444
▁ھی	-6445
▁ہا	-6446
▁ہڈ	-6447
▁ین	-6448
ارگٹ	-6449
افرم	-6450
البا	-6451
البہ	-6452
الحق	-6453
الوں	-6454
الٹی	-6455
اموش	-6456
انٹر	-6457
اورہ	-6458
اویے	-6459
ايیر	-6460
اکین	-6461
اہری	-6462
اہیے	-6463
بازی	-6464
باني	-6465
بخود	-6466
بدیل	-6467
بہتر	-6468
تابھ	-6469
جہاں	-6470
خراش	-6471
داری	-6472
دورہ	-6473
ذبذب	-6474
راسٹ	-6475
ربڑھ	-6476
رفیس	-6477
رگاہ	-6478
ریاں	-6479
زايی	-6480
ساين	-6481
ستار	-6482
ستجو	-6483
سطور	-6484
سيلہ	-6485
شاہد	-6486
شیوں	-6487
صافی	-6488
صحیح	-6489
ضحیک	-6490
عراء	-6491
فکیٹ	-6492
فیکٹ	-6493
قیقہ	-6494
لامی	-6495
لیٹر	-6496
لیٹس	-6497
مدات	-6498
ندیل	-6499
طق	-6500
روش	-6501
عین	-6502
لوٹ	-6503
وٹے	-6504
▁گڈ	-6505
اتھا	-6506
ادرب	-6507
الیب	-6508
ايٹی	-6509
دارت	-6510
متیں	-6511
ملکی	-6512
نویت	-6513
نٹوں	-6514
وحین	-6515
وخال	-6516
وزیر	-6517
ولبر	-6518
ونڈی	-6519
ویمن	-6520
يیفا	-6521
ٹیفک	-6522
پاوں	-6523
پاير	-6524
پسول	-6525
پوری	-6526
پیشل	-6527
چلتا	-6528
ڈیشن	-6529
کاسٹ	-6530
کلاں	-6531
کورہ	-6532
گرنہ	-6533
گوگل	-6534
یالم	-6535
یرنگ	-6536
یروت	-6537
یزون	-6538
ینشن	-6539
ینڈر	-6540
ینڈل	-6541
ینگے	-6542
یکرز	-6543
▁اان	-6544
▁اخذ	-6545
▁الغ	-6546
▁اوٹ	-6547
▁اين	-6548
▁اپے	-6549
▁باگ	-6550
▁بلو	-6551
▁بوم	-6552
▁بھا	-6553
▁تاح	-6554
▁تان	-6555
▁توف	-6556
▁جاہ	-6557
▁ججی	-6558
▁جدہ	-6559
▁جڑے	-6560
▁جھک	-6561
▁جیل	-6562
▁حرف	-6563
▁حسد	-6564
▁حصه	-6565
▁خرم	-6566
▁خلا	-6567
▁خوا	-6568
▁دری	-6569
▁دمی	-6570
▁رزق	-6571
▁رسم	-6572
▁رعن	-6573
▁رنج	-6574
▁رکا	-6575
▁رہن	-6576
▁ریپ	-6577
▁ریڈ	-6578
▁زرم	-6579
▁زند	-6580
▁زکو	-6581
▁ساد	-6582
▁سجا	-6583
▁سخن	-6584
▁سرش	-6585
▁سند	-6586
▁سوٹ	-6587
▁شفا	-6588
▁شوک	-6589
▁شیخ	-6590
▁صدف	-6591
▁صفت	-6592
▁صنم	-6593
▁ضرب	-6594
▁طبع	-6595
▁عین	-6596
▁غار	-6597
▁غضب	-6598
▁فاش	-6599
▁فال	-6600
▁فام	-6601
▁فنش	-6602
▁فول	-6603
▁قبا	-6604
▁قبی	-6605
▁قفس	-6606
▁لاد	-6607
▁لتے	-6608
▁لوم	-6609
▁لیو	-6610
▁ماش	-6611
▁مسخ	-6612
▁مشا	-6613
▁منے	-6614
▁نخو	-6615
▁نشہ	-6616
▁نفی	-6617
▁نگہ	-6618
▁نہج	-6619
▁ومب	-6620
▁ٹھی	-6621
▁ٹیل	-6622
▁پلے	-6623
▁پمز	-6624
▁پٹھ	-6625
▁پڑو	-6626
▁پیو	-6627
▁چاک	-6628
▁چیٹ	-6629
▁چیڑ	-6630
▁ڈرا	-6631
▁ڈور	-6632
▁ڈیم	-6633
▁ڈیٹ	-6634
▁ڈیپ	-6635
▁کاق	-6636
▁کاک	-6637
▁کرج	-6638
▁کسے	-6639
▁کلی	-6640
▁کنو	-6641
▁کوس	-6642
▁کچا	-6643
▁کچن	-6644
▁کچی	-6645
▁کہل	-6646
▁کیو	-6647
▁کیں	-6648
▁کےع	-6649
▁گرج	-6650
▁گرل	-6651
▁گنگ	-6652
▁گنی	-6653
▁گیٹ	-6654
▁ہاش	-6655
▁ہرن	-6656
▁ہلا	-6657
▁ہیي	-6658
▁یمن	-6659
▁یکم	-6660
اجیکٹ	-6661
الدین	-6662
ايونٹ	-6663
ايیڈل	-6664
بوڈیا	-6665
تالیس	-6666
تبدیل	-6667
ثیايی	-6668
داخلہ	-6669
دیانت	-6670
ستانہ	-6671
عدلیہ	-6672
فیوزڈ	-6673
قادری	-6674
قسمتی	-6675
لاعات	-6676
لیيرز	-6677
مسايل	-6678
نڈورا	-6679
نیشنل	-6680
ولوجی	-6681
ولیات	-6682
ومدار	-6683
ونکتے	-6684
ٹرافی	-6685
چاہیے	-6686
چھوٹے	-6687
ڈیشین	-6688
کرايب	-6689
کلپٹس	-6690
گھنٹے	-6691
گینون	-6692
ھارٹی	-6693
ھیرنے	-6694
ہرایا	-6695
ہریلا	-6696
▁اجرا	-6697
▁اجکل	-6698
▁احیا	-6699
▁اراپ	-6700
▁ارشد	-6701
▁اسلم	-6702
▁اشرف	-6703
▁اصلا	-6704
▁اصلی	-6705
▁اغوش	-6706
▁امیج	-6707
▁امیہ	-6708
▁انٹی	-6709
▁اوبر	-6710
▁اوبس	-6711
▁اورن	-6712
▁اوسط	-6713
▁ايسا	-6714
▁ايند	-6715
▁ايیے	-6716
▁اٹلی	-6717
▁اٹھی	-6718
▁اپیل	-6719
▁اچھل	-6720
▁اکشر	-6721
▁ایرک	-6722
▁بجاے	-6723
▁بددل	-6724
▁برتھ	-6725
▁بنتے	-6726
▁بوسہ	-6727
▁بچاے	-6728
▁بھرم	-6729
▁بھلی	-6730
▁بھیس	-6731
▁بھیگ	-6732
▁بہنے	-6733
▁تاجر	-6734
▁ترجم	-6735
▁تضاد	-6736
▁تلفظ	-6737
▁تنکا	-6738
▁توڑا	-6739
▁تيیں	-6740
▁تیور	-6741
▁جالب	-6742
▁جايی	-6743
▁جاکر	-6744
▁جبڑا	-6745
▁جرات	-6746
▁جلسہ	-6747
▁جلسے	-6748
▁جلوے	-6749
▁جنتی	-6750
▁جنوب	-6751
▁جوبن	-6752
▁جويے	-6753
▁جہان	-6754
▁جہتی	-6755
▁جیمی	-6756
▁حاضر	-6757
▁خادم	-6758
▁خبری	-6759
▁خزاں	-6760
▁خضوع	-6761
▁خطوں	-6762
▁خلوص	-6763
▁داسو	-6764
▁درود	-6765
▁دلیر	-6766
▁دورے	-6767
▁دوڑا	-6768
▁دھوم	-6769
▁دیسی	-6770
▁دیوب	-6771
▁راجر	-6772
▁راکٹ	-6773
▁راکھ	-6774
▁رحمی	-6775
▁رنگا	-6776
▁روتا	-6777
▁رکنی	-6778
▁رہنی	-6779
▁سالن	-6780
▁سايے	-6781
▁ساٹھ	-6782
▁سبزہ	-6783
▁سرکس	-6784
▁سطحی	-6785
▁سماں	-6786
▁سمیٹ	-6787
▁سنجے	-6788
▁سننا	-6789
▁سوتی	-6790
▁سورو	-6791
▁سوفے	-6792
▁سٹنٹ	-6793
▁سیال	-6794
▁سیاہ	-6795
▁سینے	-6796
▁شادو	-6797
▁شايد	-6798
▁شاير	-6799
▁شوخی	-6800
▁شکنی	-6801
▁شہرہ	-6802
▁شیعہ	-6803
▁صبری	-6804
▁صدقہ	-6805
▁طرح۔	-6806
▁طریق	-6807
▁طناز	-6808
▁عبرت	-6809
▁عبور	-6810
▁عراق	-6811
▁عروہ	-6812
▁عزیر	-6813
▁عنصر	-6814
▁غورو	-6815
▁فايی	-6816
▁فراڈ	-6817
▁فونز	-6818
▁فوٹو	-6819
▁فیصل	-6820
▁فیول	-6821
▁فیچر	-6822
▁قتال	-6823
▁قلعے	-6824
▁قمیض	-6825
▁لاتی	-6826
▁لايف	-6827
▁لايم	-6828
▁لطیف	-6829
▁لمحے	-6830
▁لٹکا	-6831
▁لگنے	-6832
▁لیول	-6833
▁لیٹر	-6834
▁مالا	-6835
▁مانا	-6836
▁مانچ	-6837
▁مايک	-6838
▁ماچس	-6839
▁مبشر	-6840
▁محرک	-6841
▁مریخ	-6842
▁مستع	-6843
▁مظہر	-6844
▁معطل	-6845
▁ملنی	-6846
▁مندی	-6847
▁منطق	-6848
▁منیب	-6849
▁مواد	-6850
▁موثر	-6851
▁موٹا	-6852
▁ناان	-6853
▁نامی	-6854
▁نبرد	-6855
▁ندوی	-6856
▁نسلی	-6857
▁نظیر	-6858
▁نقاب	-6859
▁نوبت	-6860
▁نوید	-6861
▁نگاہ	-6862
▁نیدر	-6863
▁نیکی	-6864
▁وادر	-6865
▁وارن	-6866
▁وايٹ	-6867
▁ورکر	-6868
▁وصال	-6869
▁وقار	-6870
▁وہتو	-6871
▁ٹکڑے	-6872
▁ٹھاٹ	-6873
▁پانے	-6874
▁پتہ۔	-6875
▁پروم	-6876
▁پرچی	-6877
▁پستہ	-6878
▁پوجا	-6879
▁پونے	-6880
▁پھلے	-6881
▁پیاز	-6882
▁پیتا	-6883
▁پیٹھ	-6884
▁چالو	-6885
▁چليے	-6886
▁چلیے	-6887
▁چندے	-6888
▁چودہ	-6889
▁چھٹے	-6890
▁چیدہ	-6891
▁ڈبیا	-6892
▁ڈراف	-6893
▁ڈگری	-6894
▁ڈیڑھ	-6895
▁کالج	-6896
▁کثیر	-6897
▁کرام	-6898
▁کروٹ	-6899
▁کرہی	-6900
▁کسان	-6901
▁کعبہ	-6902
▁کلچر	-6903
▁کوزے	-6904
▁کوسٹ	-6905
▁کوڑا	-6906
▁کٹوا	-6907
▁کھنچ	-6908
▁کھیپ	-6909
▁کہوں	-6910
▁کیرب	-6911
▁کیون	-6912
▁کیوی	-6913
▁کیں۔	-6914
▁گالف	-6915
▁گالی	-6916
▁گروی	-6917
▁گرہن	-6918
▁گوبر	-6919
▁گھری	-6920
▁ہتھی	-6921
▁ہلکا	-6922
▁ہولی	-6923
اتےہیں	-6924
اریہاں	-6925
اشمالی	-6926
انونیت	-6927
ايیکنگ	-6928
رہماری	-6929
سٹریشن	-6930
لوٹینس	-6931
مقابلہ	-6932
ولپنڈی	-6933
ولیايی	-6934
ٹاگرام	-6935
پیٹرول	-6936
کےبازی	-6937
گزینڈر	-6938
▁ابلیس	-6939
▁اثاثہ	-6940
▁اربوں	-6941
▁ارڑان	-6942
▁اسايش	-6943
▁اسرار	-6944
▁اسلحہ	-6945
▁اسماں	-6946
▁اشیاء	-6947
▁اطفال	-6948
▁اعداد	-6949
▁افکار	-6950
▁افیشل	-6951
▁البرٹ	-6952
▁الجاز	-6953
▁الحاق	-6954
▁الحال	-6955
▁الشیخ	-6956
▁الطاف	-6957
▁الودہ	-6958
▁الوقت	-6959
▁امداد	-6960
▁امدنی	-6961
▁امدید	-6962
▁انفرا	-6963
▁اوکھے	-6964
▁اوگرا	-6965
▁اٹلان	-6966
▁اکايی	-6967
▁اگانے	-6968
▁اگاہی	-6969
▁اہلیہ	-6970
▁ایجاب	-6971
▁ایجاد	-6972
▁ایلیا	-6973
▁باجوہ	-6974
▁باسکٹ	-6975
▁باندی	-6976
▁بتانے	-6977
▁بخاری	-6978
▁بخوبی	-6979
▁بدلتا	-6980
▁برايی	-6981
▁برويے	-6982
▁برکات	-6983
▁بزدار	-6984
▁بسیرا	-6985
▁بلڈنگ	-6986
▁بناوٹ	-6987
▁بندوق	-6988
▁بولنا	-6989
▁بوندا	-6990
▁بچانے	-6991
▁بھینٹ	-6992
▁بہانہ	-6993
▁بہانے	-6994
▁بیروت	-6995
▁تاریک	-6996
▁تجزیہ	-6997
▁تحسین	-6998
▁تذبذب	-6999
▁تضحیک	-7000
▁تعیلم	-7001
▁تماشہ	-7002
▁تنازع	-7003
▁توفیق	-7004
▁توقیر	-7005
▁تکفیر	-7006
▁تکنیک	-7007
▁ثانیہ	-7008
▁جامعہ	-7009
▁جاننا	-7010
▁جانیں	-7011
▁جستجو	-7012
▁جسوال	-7013
▁جملوں	-7014
▁جوانی	-7015
▁جھونک	-7016
▁جھٹکے	-7017
▁خبروں	-7018
▁خدشات	-7019
▁خزانے	-7020
▁خوانی	-7021
▁داروں	-7022
▁داڑھی	-7023
▁دبايو	-7024
▁دکھاو	-7025
▁دھارے	-7026
▁دھونی	-7027
▁دیوار	-7028
▁ذايقہ	-7029
▁ذہنوں	-7030
▁راجیو	-7031
▁راشدہ	-7032
▁راموز	-7033
▁راموس	-7034
▁راونڈ	-7035
▁رزمیہ	-7036
▁رعایت	-7037
▁روندا	-7038
▁رونما	-7039
▁زاویے	-7040
▁زخموں	-7041
▁زیریں	-7042
▁ساختہ	-7043
▁سجادہ	-7044
▁سجایا	-7045
▁سسٹمز	-7046
▁سلیقہ	-7047
▁سلیقے	-7048
▁سماعت	-7049
▁سنبھل	-7050
▁سنگین	-7051
▁سونپا	-7052
▁سچايی	-7053
▁سڑکیں	-7054
▁سیلاب	-7055
▁سینما	-7056
▁سینیٹ	-7057
▁شاعرہ	-7058
▁شبانہ	-7059
▁شرافت	-7060
▁شعوری	-7061
▁شوٹنگ	-7062
▁صدارت	-7063
▁ضابطے	-7064
▁ضوابط	-7065
▁طلباء	-7066
▁ظاہری	-7067
▁غالبا	-7068
▁فاصلہ	-7069
▁فالتو	-7070
▁قذافی	-7071
▁قسمیں	-7072
▁قندیل	-7073
▁قواعد	-7074
▁لاچار	-7075
▁لکھوں	-7076
▁لکھیں	-7077
▁لگاتے	-7078
▁لگایا	-7079
▁لہروں	-7080
▁مادری	-7081
▁ماسٹر	-7082
▁متحرک	-7083
▁مخمصے	-7084
▁مراکز	-7085
▁مروجہ	-7086
▁مسليے	-7087
▁مشکوک	-7088
▁مصطفی	-7089
▁مصنفہ	-7090
▁مظالم	-7091
▁معتبر	-7092
▁مقتول	-7093
▁ملاوٹ	-7094
▁منصور	-7095
▁منٹوں	-7096
▁موزوں	-7097
▁مونٹی	-7098
▁موڈرچ	-7099
▁میاوں	-7100
▁مینڈک	-7101
▁میٹرو	-7102
▁ناشتہ	-7103
▁نرخوں	-7104
▁نظریے	-7105
▁نکھوں	-7106
▁نگاری	-7107
▁والے۔	-7108
▁واٹسن	-7109
▁واپڈا	-7110
▁وظايف	-7111
▁ولیمز	-7112
▁وولبر	-7113
▁وگرنہ	-7114
▁ٹارگٹ	-7115
▁ٹاکرے	-7116
▁ٹرايی	-7117
▁ٹويٹر	-7118
▁ٹپکتا	-7119
▁ٹکٹرے	-7120
▁پايے۔	-7121
▁پرواہ	-7122
▁پنکھے	-7123
▁پودوں	-7124
▁پڑھتا	-7125
▁پکوان	-7126
▁پکڑنا	-7127
▁پھرتے	-7128
▁پھندہ	-7129
▁پھولے	-7130
▁چالاک	-7131
▁چاندی	-7132
▁چاٹتے	-7133
▁چایيے	-7134
▁چلانا	-7135
▁چمکتی	-7136
▁چونکا	-7137
▁چھٹیں	-7138
▁چھڑکا	-7139
▁چیختا	-7140
▁چیکنگ	-7141
▁ڈايری	-7142
▁کاروں	-7143
▁کارکن	-7144
▁کامرس	-7145
▁کانگو	-7146
▁کاٹتے	-7147
▁کدورت	-7148
▁کرتوت	-7149
▁کررہا	-7150
▁کرلیں	-7151
▁کماتے	-7152
▁کنفرم	-7153
▁کونسل	-7154
▁کوکچھ	-7155
▁کھیلی	-7156
▁کیاہے	-7157
▁کیلیے	-7158
▁کینری	-7159
▁کیوں۔	-7160
▁کےحسن	-7161
▁گرداں	-7162
▁گرگیا	-7163
▁گزرتی	-7164
▁گھبرا	-7165
▁گیانا	-7166
▁ہاوسز	-7167
▁ہمراہ	-7168
▁ہملٹن	-7169
▁ہڈیاں	-7170
▁ہیومن	-7171
▁ہیکرز	-7172
افرمايے	-7173
راسٹايل	-7174
رونیشیا	-7175
▁اتارنے	-7176
▁ادھورا	-7177
▁ازمایش	-7178
▁اساسات	-7179
▁اسالیب	-7180
▁اسٹیشن	-7181
▁اسپیشل	-7182
▁اسکندر	-7183
▁افریقی	-7184
▁افزايی	-7185
▁الاسٹک	-7186
▁السطور	-7187
▁الہامی	-7188
▁امريکا	-7189
▁انسٹال	-7190
▁اورایک	-7191
▁اورکیا	-7192
▁ايلینڈ	-7193
▁اپنانا	-7194
▁اہستہ۔	-7195
▁ایشیاء	-7196
▁بازیچہ	-7197
▁بالاخر	-7198
▁بخارات	-7199
▁برازیل	-7200
▁برتايو	-7201
▁بریگیڈ	-7202
▁بچايیں	-7203
▁بڑھایا	-7204
▁بھروسے	-7205
▁بھلايی	-7206
▁بینظیر	-7207
▁بیٹھتا	-7208
▁بیٹھنا	-7209
▁بیچارے	-7210
▁تمھاری	-7211
▁تنظیم۔	-7212
▁تہذیبی	-7213
▁جارجیا	-7214
▁جامعات	-7215
▁جاہلیت	-7216
▁خالصتا	-7217
▁خدوخال	-7218
▁خواہاں	-7219
▁داریوں	-7220
▁دشواری	-7221
▁دلخراش	-7222
▁دوساٹھ	-7223
▁دکھايے	-7224
▁دہرانے	-7225
▁رعنايی	-7226
▁روٹیاں	-7227
▁روٹیوں	-7228
▁رہنماي	-7229
▁ریفنڈز	-7230
▁زہریلا	-7231
▁سامعین	-7232
▁ساينسی	-7233
▁سزايیں	-7234
▁سمجھای	-7235
▁سنايیں	-7236
▁سنجیدہ	-7237
▁سنگیتا	-7238
▁سورونو	-7239
▁سویلین	-7240
▁سینڈوچ	-7241
▁سیکھتا	-7242
▁سیکھنے	-7243
▁سےبہتر	-7244
▁شکستوں	-7245
▁صوبايی	-7246
▁طاقتوں	-7247
▁عادتوں	-7248
▁غلاموں	-7249
▁غلطیوں	-7250
▁فامولا	-7251
▁فايدہ۔	-7252
▁فراموش	-7253
▁فلورین	-7254
▁فٹبالر	-7255
▁لگايے۔	-7256
▁لگوايے	-7257
▁مالکان	-7258
▁مانگتی	-7259
▁مايیکل	-7260
▁ماہتاب	-7261
▁مجبوری	-7262
▁محاذوں	-7263
▁مذکورہ	-7264
▁مضايقہ	-7265
▁معنویت	-7266
▁مفاہمت	-7267
▁ملیالم	-7268
▁منقسمہ	-7269
▁مکالمے	-7270
▁مہرباں	-7271
▁ناردرن	-7272
▁ناقدین	-7273
▁ناکافی	-7274
▁نخواہی	-7275
▁نمونوں	-7276
▁نورانی	-7277
▁نکالتا	-7278
▁واردات	-7279
▁وارمنگ	-7280
▁وزرايے	-7281
▁ومبلڈن	-7282
▁ٹریننگ	-7283
▁ٹریڈنگ	-7284
▁ٹھکانے	-7285
▁ٹھہرتا	-7286
▁پرتگال	-7287
▁پرفیکٹ	-7288
▁پرکھنے	-7289
▁پنجابی	-7290
▁پولٹکس	-7291
▁پھرلغت	-7292
▁پہچان۔	-7293
▁پیمانہ	-7294
▁پیمانے	-7295
▁پیٹرول	-7296
▁چاہتا۔	-7297
▁چڑھايے	-7298
▁چھوڑنا	-7299
▁چھوڑوں	-7300
▁ڈریسنگ	-7301
▁ڈیزاين	-7302
▁کاغذات	-7303
▁کامران	-7304
▁کتابوں	-7305
▁کرایا۔	-7306
▁کردیتے	-7307
▁کرواتا	-7308
▁کروانا	-7309
▁کلہاڑی	-7310
▁کوالٹی	-7311
▁کوششوں	-7312
▁کھايیں	-7313
▁کھولتا	-7314
▁کھولنے	-7315
▁کیليے۔	-7316
▁کیمرون	-7317
▁کیپسول	-7318
▁کےپاوں	-7319
▁گارنٹی	-7320
▁گاہکوں	-7321
▁گریباں	-7322
▁گزارا۔	-7323
▁گزاریں	-7324
▁ہالینڈ	-7325
▁ہونٹوں	-7326
▁ہونےتک	-7327
▁ہوگيے۔	-7328
▁ہیمبرگ	-7329
▁یويیفا	-7330
_2663060	-7331
_2663070	-7332
_2663072	-7333
ساينٹیفک	-7334
▁اانکشاف	-7335
▁اتھارٹی	-7336
▁احساسات	-7337
▁اراپاہو	-7338
▁استقامت	-7339
▁امیتابھ	-7340
▁انٹرفیس	-7341
▁انگلیاں	-7342
▁اولادوں	-7343
▁اولمپکس	-7344
▁اٹھايیں	-7345
▁اکايونٹ	-7346
▁ایتھلیٹ	-7347
▁ایمیزون	-7348
▁باشندوں	-7349
▁باغبانی	-7350
▁باکسروں	-7351
▁برايیڈل	-7352
▁بمقابلہ	-7353
▁بنتاہے۔	-7354
▁بندرگاہ	-7355
▁بکھیرنے	-7356
▁بھونکتے	-7357
▁بیٹھتے۔	-7358
▁بیٹھیيے	-7359
▁تحریریں	-7360
▁تفصیلات	-7361
▁تیاریوں	-7362
▁حکومتوں	-7363
▁حیثیتیں	-7364
▁حیوانات	-7365
▁خواہشوں	-7366
▁خودبخود	-7367
▁دوستانہ	-7368
▁دہندگان	-7369
▁دیکھيے۔	-7370
▁رايیڈرز	-7371
▁رايیڈنگ	-7372
▁رہنماوں	-7373
▁ریاستوں	-7374
▁سفرنامہ	-7375
▁سنبھالا	-7376
▁سنبھالو	-7377
▁سنچریاں	-7378
▁سٹریلین	-7379
▁سہولیات	-7380
▁شاعرانہ	-7381
▁صنعتکار	-7382
▁ضیاالحق	-7383
▁طلسماتی	-7384
▁عبداللہ	-7385
▁علاقايی	-7386
▁عیاشیوں	-7387
▁غوروفکر	-7388
▁غیرملکی	-7389
▁فايیٹرز	-7390
▁مخلوقات	-7391
▁معصومیت	-7392
▁مفتوحین	-7393
▁مقابلوں	-7394
▁مچھلیاں	-7395
▁میںصحیح	-7396
▁نامزدگی	-7397
▁نقصانات	-7398
▁نورجہاں	-7399
▁نگہباني	-7400
▁وابستگی	-7401
▁واشنگٹن	-7402
▁ٹماٹروں	-7403
▁ٹھہرایا	-7404
▁پراجیکٹ	-7405
▁پریشانی	-7406
▁پوڈکاسٹ	-7407
▁پھیلانے	-7408
▁پیمانوں	-7409
▁ڈھنڈورا	-7410
▁کمبوڈیا	-7411
▁کمیونٹی	-7412
▁کنفیوزڈ	-7413
▁کینٹیکی	-7414
▁کےمسايل	-7415
▁گنوايیں	-7416
▁ہايیکنگ	-7417
▁ہوتےہیں	-7418
▁ہوشیاری	-7419
▁یوکلپٹس	-7420
اسکتاوزیر	-7421
انٹرنیشنل	-7422
لاقانونیت	-7423
▁اداکاروں	-7424
▁انٹریکشن	-7425
▁اورعدلیہ	-7426
▁برتھلیمی	-7427
▁حکمرانوں	-7428
▁دارومدار	-7429
▁دوسرےملک	-7430
▁راولپنڈی	-7431
▁رجسٹریشن	-7432
▁زرمبادلہ	-7433
▁سبسکرايب	-7434
▁ناانصافی	-7435
▁نظرانداز	-7436
▁وزیراعلی	-7437
▁پارلیمان	-7438
▁پروفیشنل	-7439
▁پریشربڑھ	-7440
▁ڈیسکگوگل	-7441
▁کارروايی	-7442
▁کارڈیشین	-7443
▁کامطالبہ	-7444
▁کشمیرمیں	-7445
▁گھبرايیے	-7446
▁ہسپتالوں	-7447
▁ہونیوالے	-7448
بیوروکریسی	-7449
چاہیےہارون	-7450
▁الیگزینڈر	-7451
▁انجینیرنگ	-7452
▁انسٹاگرام	-7453
▁خاطرہماری	-7454
▁دھوکےبازی	-7455
▁ریگولیٹری	-7456
▁سرشاریہاں	-7457
▁عبدالستار	-7458
▁عربپیٹرول	-7459
▁عطافرمايے	-7460
▁نیدرلینڈز	-7461
▁ٹیکنولوجی	-7462
▁پاکستانیت	-7463
▁کارلوٹینس	-7464
▁ہالیگینون	-7465
▁ہزارچھوٹے	-7466
▁کارروايیاں	-7467
▁ہیيراسٹايل	-7468
▁اقتدارتبدیل	-7469
▁امریکاشمالی	-7470
▁انڈونیثیايی	-7471
▁دسمبرایجنسی	-7472
▁مايکرونیشیا	-7473
▁پریکٹسٹرافی	-7474
▁سرگرمیاںمعطل	-7475
اسکتاوزیرداخلہ	-7476
▁جاناچاہیےہارون	-7477
▁پریشربڑھاتےہیں	-7478
''	-7479
لر	-7480
لص	-7481
لع	-7482
بیو	-7483
بیہ	-7484
خصت	-7485
درد	-7486
دگی	-7487
▁یش	-7488
سیمی	-7489
کرتی	-7490
▁شمش	-7491
▁صحن	-7492
▁صیح	-7493
▁پرے	-7494
امزاج	-7495
وردار	-7496
▁اندا	-7497
▁انمٹ	-7498
▁بتاو	-7499
▁جنات	-7500
▁جینے	-7501
▁حربہ	-7502
▁دلوا	-7503
▁دیوی	-7504
▁رخصت	-7505
▁روما	-7506
▁رگبی	-7507
▁سجتا	-7508
▁غنڈہ	-7509
▁فلمز	-7510
▁مخلص	-7511
▁وحشت	-7512
▁پکڑا	-7513
▁ڈنڈے	-7514
▁کاشت	-7515
▁گردن	-7516
▁اجاتے	-7517
▁اقرار	-7518
▁اوریہ	-7519
▁ایشوز	-7520
▁بتاتے	-7521
▁بوریت	-7522
▁رنگین	-7523
▁صلیبی	-7524
▁مانگو	-7525
▁پنکھا	-7526
▁ڈیبیو	-7527
▁ہمدرد	-7528
▁یکساں	-7529
▁بڑھاتا	-7530
▁تربیتی	-7531
▁تفصیلی	-7532
▁تھوکيے	-7533
▁جھکايو	-7534
▁لیڈروں	-7535
▁ٹايروں	-7536
▁پارکنگ	-7537
▁کروڑوں	-7538
▁استقبال	-7539
▁جغرافیے	-7540
▁سکیورٹی	-7541
▁عايدکرتی	-7542
▁کاشتکاروں	-7543
▁ہمارامزاج	-7544
ثہ	-7545
حے	-7546
دع	-7547
زت	-7548
طغ	-7549
غز	-7550
گت	-7551
اد۔	-7552
اکو	-7553
اگت	-7554
ایب	-7555
بوط	-7556
بوں	-7557
بچن	-7558
تیش	-7559
جوش	-7560
دھر	-7561
دھن	-7562
زید	-7563
سری	-7564
سطو	-7565
سنل	-7566
شام	-7567
شید	-7568
صلہ	-7569
ضحی	-7570
طری	-7571
غاز	-7572
مقد	-7573
منگ	-7574
میع	-7575
ناں	-7576
نظر	-7577
نوا	-7578
نگا	-7579
نہم	-7580
واگ	-7581
وتی	-7582
يیم	-7583
ٹزر	-7584
ٹوڈ	-7585
پید	-7586
ڈھا	-7587
ڑھے	-7588
کشی	-7589
گنی	-7590
یاے	-7591
یا۔	-7592
یدے	-7593
یور	-7594
یوم	-7595
یڈن	-7596
یڈ۔	-7597
▁ثم	-7598
▁زن	-7599
خم	-7600
شم	-7601
طخ	-7602
يز	-7603
گن	-7604
افق	-7605
امے	-7606
ايي	-7607
دھا	-7608
زول	-7609
لبی	-7610
ناٹ	-7611
واب	-7612
وٹا	-7613
وڑا	-7614
کاک	-7615
یلو	-7616
یکو	-7617
▁فح	-7618
▁فش	-7619
▁وپ	-7620
▁ير	-7621
▁ڈس	-7622
▁ڈچ	-7623
▁یخ	-7624
▁یے	-7625
اتحت	-7626
اتے۔	-7627
احمد	-7628
اشیہ	-7629
اصرہ	-7630
الا۔	-7631
انٹی	-7632
انڈے	-7633
ايزڈ	-7634
اينل	-7635
اينگ	-7636
ايڈل	-7637
اگان	-7638
بودا	-7639
بھتی	-7640
بھجن	-7641
ترمہ	-7642
تیلہ	-7643
جاجی	-7644
جاست	-7645
جانب	-7646
جمعی	-7647
داشت	-7648
دریج	-7649
دمنی	-7650
راپی	-7651
ربرد	-7652
رتسر	-7653
رسول	-7654
روبا	-7655
روما	-7656
ریوں	-7657
زملا	-7658
زیری	-7659
سايٹ	-7660
سروڈ	-7661
سواں	-7662
سودہ	-7663
سويی	-7664
سویں	-7665
سٹنٹ	-7666
سیوں	-7667
شالا	-7668
طغرل	-7669
عموم	-7670
عنان	-7671
قیقی	-7672
لاوڈ	-7673
لوان	-7674
لکار	-7675
محمد	-7676
مقصد	-7677
میرا	-7678
نامے	-7679
نجیر	-7680
ندرز	-7681
ندھے	-7682
نسار	-7683
نگٹے	-7684
نیير	-7685
والہ	-7686
وایس	-7687
وتری	-7688
ونڈا	-7689
ونیم	-7690
وپیا	-7691
ٹروک	-7692
ٹمور	-7693
پورا	-7694
پیوٹ	-7695
کنار	-7696
کھٹا	-7697
ھیال	-7698
ہاتی	-7699
بش	-7700
بک	-7701
غل	-7702
پڑ	-7703
بعد	-7704
خدا	-7705
قوف	-7706
واہ	-7707
وتہ	-7708
ووں	-7709
پتہ	-7710
پھر	-7711
چرڈ	-7712
ہاک	-7713
یما	-7714
▁زح	-7715
▁فخ	-7716
▁نب	-7717
ادلہ	-7718
اراش	-7719
ارکٹ	-7720
اویل	-7721
اکید	-7722
حالی	-7723
دردی	-7724
زادی	-7725
واقع	-7726
وسفی	-7727
گاری	-7728
ہوتی	-7729
ہويے	-7730
یقین	-7731
یمنڈ	-7732
یکوڈ	-7733
▁اشع	-7734
▁الٹ	-7735
▁اٹک	-7736
▁اپل	-7737
▁بدی	-7738
▁برخ	-7739
▁بشر	-7740
▁بطخ	-7741
▁بقا	-7742
▁بقی	-7743
▁توچ	-7744
▁تکث	-7745
▁جمی	-7746
▁جھن	-7747
▁حاک	-7748
▁حرب	-7749
▁حرص	-7750
▁حیف	-7751
▁خلش	-7752
▁دال	-7753
▁دام	-7754
▁دلہ	-7755
▁دوا	-7756
▁دوگ	-7757
▁دھن	-7758
▁دہی	-7759
▁ذمے	-7760
▁ذوق	-7761
▁ربڑ	-7762
▁رسن	-7763
▁رضا	-7764
▁رعب	-7765
▁رقی	-7766
▁زار	-7767
▁زلف	-7768
▁زید	-7769
▁ساب	-7770
▁سعد	-7771
▁سوس	-7772
▁سول	-7773
▁سچن	-7774
▁شاء	-7775
▁شاپ	-7776
▁صاب	-7777
▁طاق	-7778
▁طفی	-7779
▁ظفر	-7780
▁غزل	-7781
▁فجی	-7782
▁فصل	-7783
▁فطر	-7784
▁فنی	-7785
▁قضا	-7786
▁قول	-7787
▁لرز	-7788
▁لڑے	-7789
▁لگن	-7790
▁لیب	-7791
▁مخد	-7792
▁مدر	-7793
▁ملب	-7794
▁منو	-7795
▁نسب	-7796
▁نصف	-7797
▁نیز	-7798
▁نے۔	-7799
5.	-7800
؟‘	-7801
يں	-7802
اصح	-7803
اکے	-7804
لاگ	-7805
نیو	-7806
ورر	-7807
کھن	-7808
گڑی	-7809
▁ا۔	-7810
▁وے	-7811
▁پج	-7812
▁پچ	-7813
املہ	-7814
اہرے	-7815
تاسی	-7816
صورت	-7817
مرکر	-7818
وروں	-7819
ھوری	-7820
▁بور	-7821
▁سےف	-7822
▁لڑک	-7823
▁واز	-7824
▁وسط	-7825
▁ولن	-7826
▁ونی	-7827
▁ٹوک	-7828
▁ٹہل	-7829
▁ٹیب	-7830
▁پات	-7831
▁پام	-7832
▁پتے	-7833
▁پخت	-7834
▁پست	-7835
▁چشم	-7836
▁چمن	-7837
▁چوں	-7838
▁چکھ	-7839
▁چیت	-7840
▁ڈبے	-7841
▁ڈسپ	-7842
▁کرش	-7843
▁کری	-7844
▁کنک	-7845
▁کنگ	-7846
▁کو۔	-7847
▁کھر	-7848
▁کہت	-7849
▁کہی	-7850
▁کہے	-7851
▁کیپ	-7852
▁ہام	-7853
▁ہجر	-7854
▁ہوي	-7855
▁ہوپ	-7856
▁ہیل	-7857
▁ہےا	-7858
▁یيے	-7859
اشوٹر	-7860
اعمال	-7861
الضحی	-7862
ايمنڈ	-7863
اينسز	-7864
اکانا	-7865
ایکسپ	-7866
بالغہ	-7867
بنانا	-7868
تعلیم	-7869
جوايے	-7870
جہاد۔	-7871
حادثے	-7872
خصوصی	-7873
داعظم	-7874
دیدار	-7875
ذرايع	-7876
رافیہ	-7877
راپنے	-7878
رفراز	-7879
رلاين	-7880
روشلم	-7881
رکہنا	-7882
ساگان	-7883
سیریز	-7884
شعراء	-7885
طریقہ	-7886
عنوان	-7887
لادیش	-7888
لايیں	-7889
لوگوں	-7890
مہنگے	-7891
نوعیت	-7892
وارتی	-7893
واسطہ	-7894
وریوں	-7895
ومکھی	-7896
ونشنز	-7897
ویٹکن	-7898
ٹرانک	-7899
ضر	-7900
جیم	-7901
دیر	-7902
سال	-7903
شدہ	-7904
لات	-7905
ملے	-7906
نکے	-7907
يے۔	-7908
کسر	-7909
کیہ	-7910
گرس	-7911
گیز	-7912
یکہ	-7913
▁لغ	-7914
▁وخ	-7915
ابقت	-7916
مقدس	-7917
ندکے	-7918
ڈیسک	-7919
▁افر	-7920
▁الب	-7921
▁ایب	-7922
▁تجھ	-7923
▁رکے	-7924
▁ساس	-7925
▁صفا	-7926
▁فلی	-7927
▁قون	-7928
▁مسز	-7929
▁معا	-7930
▁معر	-7931
▁میت	-7932
▁میپ	-7933
▁ورق	-7934
▁کنس	-7935
▁کنی	-7936
▁کوج	-7937
اونسر	-7938
اکرتی	-7939
سٹروک	-7940
وتاکی	-7941
ٹوڈنٹ	-7942
پرستی	-7943
پیوٹن	-7944
کاروب	-7945
کرگیا	-7946
گیروں	-7947
ہوٹنگ	-7948
یابین	-7949
ینسکی	-7950
ینگےس	-7951
۔۔جاو	-7952
▁اجمل	-7953
▁ارتھ	-7954
▁اسمت	-7955
▁الطب	-7956
▁الٹا	-7957
▁الٹے	-7958
▁امیگ	-7959
▁انٹل	-7960
▁اورم	-7961
▁اور۔	-7962
▁ايرس	-7963
▁اپکی	-7964
▁اگست	-7965
▁اگلا	-7966
▁اگيی	-7967
▁ایجو	-7968
▁ایمر	-7969
▁ایمز	-7970
▁اینج	-7971
▁بااس	-7972
▁بابر	-7973
▁بابل	-7974
▁بادہ	-7975
▁بازگ	-7976
▁بالغ	-7977
▁ببان	-7978
▁بجے۔	-7979
▁بخار	-7980
▁برسر	-7981
▁برسے	-7982
▁برلن	-7983
▁برٹش	-7984
▁برکت	-7985
▁بزدل	-7986
▁بستہ	-7987
▁بسری	-7988
▁بقیہ	-7989
▁بلیم	-7990
▁بلیک	-7991
▁بنجر	-7992
▁بندہ	-7993
▁بنے۔	-7994
▁بوتے	-7995
▁بولٹ	-7996
▁بونا	-7997
▁بڈھا	-7998
▁بکرا	-7999
دہا	-8000
صود	-8001
وبے	-8002
ودہ	-8003
وین	-8004
ٹھے	-8005
ینک	-8006
▁وگ	-8007
▁پت	-8008
اہیں	-8009
دانی	-8010
سارے	-8011
لیگی	-8012
ناٹی	-8013
ھانے	-8014
▁اجا	-8015
▁برش	-8016
▁بٹس	-8017
▁جسک	-8018
▁رست	-8019
▁قاي	-8020
▁منھ	-8021
▁واج	-8022
▁پکی	-8023
▁چھت	-8024
▁کھڑ	-8025
رداری	-8026
▁ابرو	-8027
▁بچار	-8028
▁بکنگ	-8029
▁بگلے	-8030
▁بھوج	-8031
▁بھیڑ	-8032
▁بہتی	-8033
▁بہرے	-8034
▁بیحد	-8035
▁بیند	-8036
▁بےحد	-8037
▁تايی	-8038
▁تجھے	-8039
▁تدری	-8040
▁تران	-8041
▁تعال	-8042
▁تناو	-8043
▁تندر	-8044
▁تنگی	-8045
▁تکلف	-8046
▁تھپڑ	-8047
▁ثاقب	-8048
▁ثانی	-8049
▁جاجا	-8050
▁جاو۔	-8051
▁جبلی	-8052
▁جلتا	-8053
▁جلتی	-8054
▁جنبش	-8055
▁جنید	-8056
▁جوڈو	-8057
▁جچتا	-8058
▁جہنم	-8059
▁جہیز	-8060
▁جیاے	-8061
▁حدید	-8062
▁حرام	-8063
▁حسرت	-8064
▁حقیق	-8065
▁حلیم	-8066
▁حلیہ	-8067
▁حمیت	-8068
▁خاصی	-8069
▁خدمت	-8070
▁خرقہ	-8071
▁خرچہ	-8072
▁خوار	-8073
▁خوفز	-8074
▁دادی	-8075
▁دارل	-8076
▁داشت	-8077
▁دلدل	-8078
▁دھون	-8079
▁دھڑے	-8080
▁دیکر	-8081
▁راوی	-8082
▁رايز	-8083
▁رسنل	-8084
▁رضیہ	-8085
▁رقیب	-8086
▁رمیز	-8087
▁روان	-8088
▁رومن	-8089
▁رچرڈ	-8090
▁رکنا	-8091
▁ریچل	-8092
▁ریکا	-8093
▁زحمت	-8094
▁زدور	-8095
▁زونگ	-8096
▁زیاں	-8097
▁زیدہ	-8098
▁سروے	-8099
0.	-8100
برط	-8101
ثرت	-8102
جھل	-8103
ختص	-8104
ختم	-8105
▁ضد	-8106
اصمت	-8107
بننے	-8108
بیلی	-8109
جھوڑ	-8110
رانا	-8111
رینہ	-8112
مختص	-8113
وايی	-8114
ٹیاں	-8115
کرنے	-8116
کہری	-8117
یندر	-8118
▁انص	-8119
▁اوہ	-8120
▁تک۔	-8121
▁خشک	-8122
▁دشم	-8123
▁سمج	-8124
▁شبر	-8125
▁شوٹ	-8126
▁شین	-8127
▁قلب	-8128
▁مشک	-8129
▁ملہ	-8130
▁نجم	-8131
▁چکر	-8132
رمانی	-8133
▁افات	-8134
▁باسط	-8135
▁بیکس	-8136
▁تھکا	-8137
▁جزاک	-8138
▁جوشی	-8139
▁جوکہ	-8140
▁سارت	-8141
▁سرور	-8142
▁سمیع	-8143
▁سولر	-8144
▁سولہ	-8145
▁سويس	-8146
▁سٹاک	-8147
▁سکنے	-8148
▁سہمی	-8149
▁سہیل	-8150
▁سیرت	-8151
▁سیشن	-8152
▁شاخس	-8153
▁شرعی	-8154
▁شلپا	-8155
▁شمال	-8156
▁شکلا	-8157
▁شکوے	-8158
▁شیلی	-8159
▁صفوں	-8160
▁صمیم	-8161
▁ضمیر	-8162
▁ظہبی	-8163
▁عجوب	-8164
▁عصمت	-8165
▁عمرا	-8166
▁غایب	-8167
▁غرضی	-8168
▁غیبی	-8169
▁فارخ	-8170
▁فالو	-8171
▁فریب	-8172
▁فلاپ	-8173
▁فلمی	-8174
▁فنون	-8175
▁فورس	-8176
▁فورم	-8177
▁قابض	-8178
▁قاسم	-8179
▁قاصر	-8180
▁قاعد	-8181
▁قرین	-8182
▁لاوا	-8183
▁لاگت	-8184
▁لڑکے	-8185
▁لگاو	-8186
▁لگیں	-8187
▁لہجے	-8188
▁لیگز	-8189
▁لیے۔	-8190
▁مانے	-8191
▁مایہ	-8192
▁متون	-8193
▁مجلس	-8194
▁مرغی	-8195
▁مرقع	-8196
▁مروت	-8197
▁مسلح	-8198
▁مسور	-8199
7.	-8200
قعت	-8201
اروس	-8202
ارہا	-8203
حانہ	-8204
ریفک	-8205
لاين	-8206
نڈال	-8207
وروس	-8208
▁ايس	-8209
▁اہو	-8210
▁خرا	-8211
▁ریو	-8212
▁ضوع	-8213
▁فنڈ	-8214
▁فوس	-8215
▁ماج	-8216
▁متب	-8217
▁مدح	-8218
▁مرگ	-8219
▁میس	-8220
▁ناچ	-8221
▁ورک	-8222
▁چکن	-8223
▁کسر	-8224
▁گرز	-8225
▁ھے۔	-8226
امیری	-8227
وراکو	-8228
ھیروں	-8229
ینیڈا	-8230
▁ازبک	-8231
▁امنڈ	-8232
▁اکیس	-8233
▁بلاک	-8234
▁بچنے	-8235
▁جاين	-8236
▁راضی	-8237
▁طرف۔	-8238
▁طعنہ	-8239
▁لباد	-8240
▁مجرم	-8241
▁مرتا	-8242
▁مشرک	-8243
▁مشقت	-8244
▁مطلق	-8245
▁معرض	-8246
▁مفکر	-8247
▁مناے	-8248
▁منگل	-8249
▁مودت	-8250
▁مورو	-8251
▁موٹو	-8252
▁مکھن	-8253
▁مینی	-8254
▁میڈل	-8255
▁میڈم	-8256
▁نازک	-8257
▁ناصح	-8258
▁ناصر	-8259
▁نزول	-8260
▁نوحہ	-8261
▁نکات	-8262
▁نیلو	-8263
▁نیلی	-8264
▁والہ	-8265
▁وحدت	-8266
▁وحشی	-8267
▁ورثہ	-8268
▁وسٹا	-8269
▁وقعت	-8270
▁ولیس	-8271
▁ووٹر	-8272
▁يندہ	-8273
▁ٹوٹے	-8274
▁ٹيکن	-8275
▁ٹھاک	-8276
▁ٹیبل	-8277
▁ٹیرا	-8278
▁ٹیوب	-8279
▁پات۔	-8280
▁پستی	-8281
▁پلوں	-8282
▁پڑاو	-8283
▁پڑوس	-8284
▁پگڑی	-8285
▁پھسل	-8286
▁پھوڑ	-8287
▁پیرس	-8288
▁پیٹر	-8289
▁پیکج	-8290
▁چلنا	-8291
▁چنتے	-8292
▁چکمہ	-8293
▁چکے۔	-8294
▁چھاج	-8295
▁چھپی	-8296
▁چیچن	-8297
▁ڈانس	-8298
▁ڈبوں	-8299
▁ين	-8300
▁ڈرتا	-8301
▁ڈھاک	-8302
▁ڈیرے	-8303
▁ڈیوڈ	-8304
▁کاسہ	-8305
▁کالز	-8306
▁کالے	-8307
▁کام۔	-8308
▁کرغز	-8309
▁کرپٹ	-8310
▁کریہ	-8311
▁کسٹم	-8312
▁کشمش	-8313
▁کلاک	-8314
▁کليے	-8315
▁کودو	-8316
▁کورا	-8317
▁کونہ	-8318
▁کپاس	-8319
▁کھلو	-8320
▁کھنگ	-8321
▁کھود	-8322
▁کھوں	-8323
▁کیفے	-8324
▁گاتی	-8325
▁گانے	-8326
▁گايے	-8327
▁گراف	-8328
▁گرام	-8329
▁گردے	-8330
▁گلاب	-8331
▁گلگت	-8332
▁گماں	-8333
▁گنوا	-8334
▁گوہر	-8335
▁گھنا	-8336
▁ھمزہ	-8337
▁ھوگی	-8338
▁ھےکہ	-8339
▁ہارٹ	-8340
▁ہاری	-8341
▁ہرار	-8342
▁ہراس	-8343
▁یزید	-8344
▁یکدم	-8345
▁یہان	-8346
ربردار	-8347
سايیکل	-8348
سونالی	-8349
شہریوں	-8350
لادیتا	-8351
لادیتی	-8352
لیکیشن	-8353
مبرانہ	-8354
محاورہ	-8355
مقابلے	-8356
ندرگاہ	-8357
وبصورت	-8358
وتاکیے	-8359
وسفیان	-8360
▁ابستر	-8361
▁اتارا	-8362
▁اتریں	-8363
▁اخراج	-8364
▁ارسطو	-8365
▁ارشاد	-8366
▁اروبا	-8367
▁ارڈرز	-8368
▁ازیری	-8369
▁اسلحے	-8370
▁اسمتھ	-8371
▁اسودہ	-8372
▁اسٹون	-8373
▁اسپنر	-8374
▁اسکور	-8375
▁اسکیم	-8376
▁اشارے	-8377
▁اشرار	-8378
▁اشعار	-8379
▁اعوام	-8380
▁افتاب	-8381
▁اقربا	-8382
▁الارض	-8383
▁الارم	-8384
▁الطبع	-8385
▁المیہ	-8386
▁امانت	-8387
▁امرال	-8388
▁انتھک	-8389
▁انڈین	-8390
▁انگیز	-8391
▁اوجھل	-8392
▁اوراب	-8393
▁اورجو	-8394
▁اورنہ	-8395
▁اورکر	-8396
▁ايیں۔	-8397
▁ايیے۔	-8398
▁اکریہ	-8399
▁اکٹھے	-8400
▁اکھٹے	-8401
▁اکہری	-8402
▁ایبلڈ	-8403
▁ایلپس	-8404
▁ایٹرز	-8405
▁ایپلی	-8406
▁باریش	-8407
▁باسکی	-8408
▁باعزت	-8409
▁بالکر	-8410
▁بانجھ	-8411
▁بانٹی	-8412
▁ببانگ	-8413
▁بتانا	-8414
▁بجانا	-8415
▁بجلی۔	-8416
▁بخشنے	-8417
▁بربری	-8418
▁برتنی	-8419
▁برستا	-8420
▁برہمی	-8421
▁بزدلی	-8422
▁بسیار	-8423
▁بلایا	-8424
▁بلندی	-8425
▁بنتی۔	-8426
▁بنکاک	-8427
▁بولتی	-8428
▁بچھڑے	-8429
▁بگاہے	-8430
▁بھاگم	-8431
▁بھولے	-8432
▁بھیگے	-8433
▁بہايی	-8434
▁بیباک	-8435
▁بیجنگ	-8436
▁بیونس	-8437
▁بیٹھو	-8438
▁تاویل	-8439
▁تاکید	-8440
▁تبلیغ	-8441
▁تجربے	-8442
▁ترانہ	-8443
▁ترجمے	-8444
▁تفتیش	-8445
▁تقابل	-8446
▁تقدیر	-8447
▁تمھیں	-8448
▁تنویر	-8449
▁توچند	-8450
▁تڑپنا	-8451
▁تھامس	-8452
▁تھانے	-8453
▁تیرنا	-8454
▁تینوں	-8455
▁جاتیں	-8456
▁جاتی۔	-8457
▁جزیرہ	-8458
▁جزیری	-8459
▁جمشید	-8460
▁جمہور	-8461
▁جمیکا	-8462
▁جنیوا	-8463
▁جوشوا	-8464
▁جھاڑا	-8465
▁جھنڈے	-8466
▁جہنوں	-8467
▁حاشیہ	-8468
▁حاضری	-8469
▁حافظے	-8470
▁خلايی	-8471
▁خلیجی	-8472
▁خوروں	-8473
▁دايیں	-8474
▁دبانے	-8475
▁دبایا	-8476
▁دربار	-8477
▁دستور	-8478
▁دسواں	-8479
▁دشوار	-8480
▁دفاتر	-8481
▁دلايل	-8482
▁دماغی	-8483
▁دنیا۔	-8484
▁دوايی	-8485
▁دکھنے	-8486
▁دکھوں	-8487
▁دھاوا	-8488
▁دھرتی	-8489
▁دھرنا	-8490
▁دہلیز	-8491
▁دیجیے	-8492
▁دیرپا	-8493
▁ذہانت	-8494
▁راشدی	-8495
▁راہیں	-8496
▁رباعی	-8497
▁رسیدہ	-8498
▁رنگوں	-8499
▁روٹین	-8500
▁رکازی	-8501
▁رکھیں	-8502
▁ریمنڈ	-8503
▁زنجیر	-8504
▁زنداں	-8505
▁سابقہ	-8506
▁سادگی	-8507
▁سارتر	-8508
▁ستارے	-8509
▁سرايے	-8510
▁سرحدی	-8511
▁سردست	-8512
▁سفارت	-8513
▁سنادی	-8514
▁سندھی	-8515
▁سنسنی	-8516
▁سویڈن	-8517
▁سٹروک	-8518
▁سپیشل	-8519
▁سپیڈ۔	-8520
▁سہواگ	-8521
▁سیارہ	-8522
▁سیفٹی	-8523
▁سیکرٹ	-8524
▁سےپید	-8525
▁شاپنگ	-8526
▁شتیلہ	-8527
▁شردہا	-8528
▁شعاير	-8529
▁شعبوں	-8530
▁شوقین	-8531
▁شیٹھی	-8532
▁صابرہ	-8533
▁صحیفہ	-8534
▁صدیوں	-8535
▁ضربیں	-8536
▁طفیلی	-8537
▁طورخم	-8538
▁طےشدہ	-8539
▁عجايب	-8540
▁عجوبہ	-8541
▁عرفات	-8542
▁عقیدے	-8543
▁علالت	-8544
▁غصےپر	-8545
▁غمگین	-8546
▁فارسی	-8547
▁فاطمی	-8548
▁فتووں	-8549
▁فحاشی	-8550
▁فراٹے	-8551
▁فرحان	-8552
▁فریزر	-8553
▁قومیں	-8554
▁قونصل	-8555
▁لاپتہ	-8556
▁للکار	-8557
▁لٹیرے	-8558
▁لگاتی	-8559
▁لگاکر	-8560
▁لیبیا	-8561
▁لینا۔	-8562
▁ماتحت	-8563
▁مادیت	-8564
▁مانے۔	-8565
▁مبادل	-8566
▁مبنی۔	-8567
▁مبینہ	-8568
▁متضاد	-8569
▁متعین	-8570
▁مثالی	-8571
▁مجسمہ	-8572
▁محافل	-8573
▁مخواہ	-8574
▁مدرسہ	-8575
▁مردوں	-8576
▁مسالک	-8577
▁مسلمہ	-8578
▁مسلکی	-8579
▁مصوری	-8580
▁مطلبی	-8581
▁معاف۔	-8582
▁معترف	-8583
▁معجزہ	-8584
▁معرکے	-8585
▁معزول	-8586
▁معقول	-8587
▁مقتدی	-8588
▁مقررہ	-8589
▁مقصود	-8590
▁مقولہ	-8591
▁ملامت	-8592
▁ملانے	-8593
▁ملبوس	-8594
▁ملتا۔	-8595
▁ملتوی	-8596
▁ملکیت	-8597
▁ممکنہ	-8598
▁منحرف	-8599
▁منسوب	-8600
▁منصبی	-8601
▁منقول	-8602
▁منکسر	-8603
▁موانگ	-8604
▁موقوف	-8605
▁مولوی	-8606
▁مچلتا	-8607
▁میںیہ	-8608
▁ناداں	-8609
▁ناپنے	-8610
▁نایاب	-8611
▁نثاری	-8612
▁نجاست	-8613
▁ندامت	-8614
▁ندیاں	-8615
▁نرالا	-8616
▁نسبتا	-8617
▁نسلیں	-8618
▁نظارے	-8619
▁نمبری	-8620
▁نواجو	-8621
▁نوالہ	-8622
▁نوٹوں	-8623
▁نوکیا	-8624
▁نکلی۔	-8625
▁نیپال	-8626
▁وارنر	-8627
▁ورکرز	-8628
▁وزوال	-8629
▁وزیرخ	-8630
▁ونگار	-8631
▁ووٹنگ	-8632
▁وپکار	-8633
▁وڈیرے	-8634
▁ٹايون	-8635
▁ٹاکرا	-8636
▁ٹرکوں	-8637
▁ٹریفک	-8638
▁ٹورڈی	-8639
▁ٹوکیو	-8640
▁ٹھیکا	-8641
▁ٹیلنٹ	-8642
▁پجارا	-8643
▁پدمنی	-8644
▁پراپر	-8645
▁پرجوش	-8646
▁پردوں	-8647
▁پرسنل	-8648
▁پروری	-8649
▁پریرا	-8650
▁پناہی	-8651
▁پنڈال	-8652
▁پولنگ	-8653
▁پڑگيی	-8654
▁پکارا	-8655
▁پھرتا	-8656
▁پھرتی	-8657
▁پھروں	-8658
▁پہلے۔	-8659
▁پیسکو	-8660
▁پیپسی	-8661
▁پیکار	-8662
▁چاھیے	-8663
▁چاہیں	-8664
▁چبھتی	-8665
▁چراو۔	-8666
▁چمکتا	-8667
▁چندسو	-8668
▁چڑھتے	-8669
▁چھری۔	-8670
▁چھلنی	-8671
▁چھوڑا	-8672
▁ڈالو۔	-8673
▁ڈرافٹ	-8674
▁ڈیگال	-8675
▁ڈےانگ	-8676
▁کاملہ	-8677
▁کانام	-8678
▁کانوں	-8679
▁کراچے	-8680
▁کرسکی	-8681
▁کرشمہ	-8682
▁کرچکا	-8683
▁کلاوڈ	-8684
▁کمبلے	-8685
▁کندھے	-8686
▁کنٹری	-8687
▁کورٹ۔	-8688
▁کوسٹا	-8689
▁کويلے	-8690
▁کٹايو	-8691
▁کھاتی	-8692
▁کھڑکی	-8693
▁کہاں۔	-8694
▁کیانی	-8695
▁کےبعد	-8696
▁کےنام	-8697
▁گذشتہ	-8698
▁گرافر	-8699
▁گرامی	-8700
▁گروہی	-8701
▁گلیڈی	-8702
▁گھنٹی	-8703
▁گھوڑا	-8704
▁گھٹتی	-8705
▁گیمنگ	-8706
▁گینڈا	-8707
▁ہايیر	-8708
▁ہمنوا	-8709
▁ہنستے	-8710
▁ہوبھی	-8711
▁ہونےو	-8712
▁ہٹایا	-8713
▁ہیروز	-8714
▁ہیں۔۔	-8715
▁یوایس	-8716
▁یورپا	-8717
▁یوسین	-8718
اراشٹرا	-8719
ارکٹیکا	-8720
ارہاہے۔	-8721
الکلامی	-8722
اورمرکر	-8723
برداروں	-8724
ورداران	-8725
کاروبار	-8726
▁ادارتی	-8727
▁ادھورے	-8728
▁ارطغرل	-8729
▁استعفی	-8730
▁استعما	-8731
▁اسسٹنٹ	-8732
▁اسٹریٹ	-8733
▁اسٹیلز	-8734
▁اسپینش	-8735
▁اسکواش	-8736
▁اصولوں	-8737
▁العنان	-8738
▁المزاج	-8739
▁المیوں	-8740
▁الواقع	-8741
▁الٹايی	-8742
▁امرتسر	-8743
▁امسيلہ	-8744
▁اندھیر	-8745
▁انوکھا	-8746
▁انکاری	-8747
▁انگریس	-8748
▁اوربعض	-8749
▁اورچیز	-8750
▁اوریوں	-8751
▁اوپنرز	-8752
▁ايیندہ	-8753
▁ايیوری	-8754
▁اچھايی	-8755
▁ایشايی	-8756
▁ایندھن	-8757
▁ایڈورڈ	-8758
▁ایڈہاک	-8759
▁بازگشت	-8760
▁بالايی	-8761
▁بتايیں	-8762
▁بتدریج	-8763
▁برايڈل	-8764
▁برونڈی	-8765
▁بمبارا	-8766
▁بھیجنے	-8767
▁بیانات	-8768
▁بیسیوں	-8769
▁بیلجیم	-8770
▁بینايی	-8771
▁بیندرے	-8772
▁بینکنگ	-8773
▁بیٹھے۔	-8774
▁بیچارہ	-8775
▁تاحیات	-8776
▁تبادلہ	-8777
▁تحقیقی	-8778
▁ترانوں	-8779
▁تصورات	-8780
▁تھراپی	-8781
▁جاسکیں	-8782
▁جانشین	-8783
▁جلدختم	-8784
▁جوانوں	-8785
▁جولیان	-8786
▁جونیير	-8787
▁جھومتی	-8788
▁حادثات	-8789
▁حقیقتا	-8790
▁حیرانی	-8791
▁خطاوار	-8792
▁خوانگی	-8793
▁خوبیاں	-8794
▁خوبیوں	-8795
▁خودکار	-8796
▁خوفزدہ	-8797
▁خوفناک	-8798
▁دریافت	-8799
▁دستگیر	-8800
▁دلجمعی	-8801
▁دکھایا	-8802
▁دھراتے	-8803
▁دھلايی	-8804
▁دھماکے	-8805
▁دھونا۔	-8806
▁دہرايی	-8807
▁دہرايے	-8808
▁دیکھو۔	-8809
▁دیہاتی	-8810
▁ذرداری	-8811
▁راستوں	-8812
▁رايزرز	-8813
▁رفتاری	-8814
▁روزقبل	-8815
▁روسیوں	-8816
▁رونگٹے	-8817
▁رکھتیں	-8818
▁رہنماں	-8819
▁ریسکیو	-8820
▁ریپبلک	-8821
▁زندگی۔	-8822
▁سعودیہ	-8823
▁سلطانہ	-8824
▁سماوات	-8825
▁سمجھتی	-8826
▁سنايیو	-8827
▁سوالیہ	-8828
▁سويٹزر	-8829
▁سٹالوں	-8830
▁سٹوڈنٹ	-8831
▁سکولوں	-8832
▁سکھاتا	-8833
▁سکھانا	-8834
▁سکھانے	-8835
▁سکینڈل	-8836
▁سیاحوں	-8837
▁سیکٹرز	-8838
▁سیکھنا	-8839
▁سےمقدس	-8840
▁شادیاں	-8841
▁شرابور	-8842
▁شرمندہ	-8843
▁شریفیہ	-8844
▁شعاعوں	-8845
▁شکرمیں	-8846
▁طبقاتی	-8847
▁طوفان۔	-8848
▁طیاروں	-8849
▁فرسودہ	-8850
▁فشانوں	-8851
▁فنتاسی	-8852
▁فہمیدہ	-8853
▁فیلڈنگ	-8854
▁قلندرز	-8855
▁لالیگا	-8856
▁لاينیں	-8857
▁لڑکیاں	-8858
▁لیااور	-8859
▁لیتیں۔	-8860
▁لیجيے۔	-8861
▁ماہانہ	-8862
▁مبالغہ	-8863
▁متحارب	-8864
▁محاربہ	-8865
▁محاصرہ	-8866
▁محترمہ	-8867
▁مخاصمت	-8868
▁مددملے	-8869
▁مزیداس	-8870
▁مستعدی	-8871
▁مسلمات	-8872
▁مشاورت	-8873
▁مشینوں	-8874
▁مصنفین	-8875
▁مضمرات	-8876
▁مطلوبہ	-8877
▁مظاہرے	-8878
▁معاہدہ	-8879
▁معلوم۔	-8880
▁ملایا۔	-8881
▁ملزملا	-8882
▁ملنسار	-8883
▁منافعے	-8884
▁منظریہ	-8885
▁موراکو	-8886
▁موٹاپے	-8887
▁میںبند	-8888
▁ناجايز	-8889
▁نمٹايے	-8890
▁ننھیال	-8891
▁نہلانا	-8892
▁نیکیوں	-8893
▁نےمحمد	-8894
▁واریاں	-8895
▁واٹمور	-8896
▁يرلینڈ	-8897
▁ٹانگوں	-8898
▁ٹايپنگ	-8899
▁ٹرینیں	-8900
▁ٹوپیاں	-8901
▁ٹکراتی	-8902
▁ٹکرايے	-8903
▁پارینہ	-8904
▁پتھروں	-8905
▁پرسندھ	-8906
▁پروموٹ	-8907
▁پریقین	-8908
▁پویلین	-8909
▁پویٹکن	-8910
▁پڑھاتے	-8911
▁پڑھانے	-8912
▁پگھلتے	-8913
▁پھیلاو	-8914
▁پہنچنا	-8915
▁پینتیس	-8916
▁چاکلیٹ	-8917
▁چاہییں	-8918
▁چلايیں	-8919
▁چنبیلی	-8920
▁چومکھی	-8921
▁چھانٹی	-8922
▁چھوڑیں	-8923
▁چھپایا	-8924
▁ڈايمنڈ	-8925
▁ڈاکٹرس	-8926
▁ڈرايیو	-8927
▁ڈکٹیشن	-8928
▁ڈھلوان	-8929
▁ڈھٹايی	-8930
▁کااغاز	-8931
▁کارندے	-8932
▁کاندھا	-8933
▁کانگرس	-8934
▁کاکويی	-8935
▁کردیتی	-8936
▁کردیں۔	-8937
▁کسانوں	-8938
▁کلہاڑا	-8939
▁کوششیں	-8940
▁کویقین	-8941
▁کٹوانے	-8942
▁کپروما	-8943
▁کھانسی	-8944
▁کھایا۔	-8945
▁کھیلتے	-8946
▁کھینچی	-8947
▁کہلاتا	-8948
▁کیجانب	-8949
▁کیمپوں	-8950
▁گجراتی	-8951
▁گذارتے	-8952
▁گرفتار	-8953
▁گوادرب	-8954
▁گھریلو	-8955
▁گھومتے	-8956
▁ہارگیا	-8957
▁ہتھیار	-8958
▁ہربھجن	-8959
▁ہمدردی	-8960
▁ہمکنار	-8961
▁ہندسوں	-8962
▁ہنگامے	-8963
▁ہوگيیں	-8964
▁ہیمپٹن	-8965
▁یروشلم	-8966
_2663061	-8967
_2663073	-8968
_2663074	-8969
ایکسپورٹ	-8970
پاکستانی	-8971
▁احتجاجی	-8972
▁اخراپنے	-8973
▁ارزويیں	-8974
▁استعارہ	-8975
▁اشرافیہ	-8976
▁افواہوں	-8977
▁افواہیں	-8978
▁الشعراء	-8979
▁القادری	-8980
▁المونیم	-8981
▁امریتوں	-8982
▁اناونسر	-8983
▁انتھونی	-8984
▁انجوايے	-8985
▁انٹیگوا	-8986
▁اورمیرا	-8987
▁او۔۔جاو	-8988
▁ايرلاين	-8989
▁ايیسویں	-8990
▁اٹلانٹک	-8991
▁اینسروڈ	-8992
▁بااسانی	-8993
▁باربودا	-8994
▁بارہواں	-8995
▁بازاروں	-8996
▁باقايدہ	-8997
▁بالعموم	-8998
▁بداعمال	-8999
▁بدعنوان	-9000
▁برامدات	-9001
▁بلغاریہ	-9002
▁بلندیوں	-9003
▁بندھانے	-9004
▁بڑھوتری	-9005
▁بیلجیين	-9006
▁تايیوان	-9007
▁ترتیبات	-9008
▁تریشالا	-9009
▁تصوارتی	-9010
▁تنازعات	-9011
▁تندرستی	-9012
▁تنظیموں	-9013
▁تنڈولکر	-9014
▁تہذیبوں	-9015
▁جاتاہے۔	-9016
▁جارحانہ	-9017
▁جاسکتا۔	-9018
▁جھنجھوڑ	-9019
▁جھینگوں	-9020
▁جیاےایف	-9021
▁حکومتیں	-9022
▁خاندانی	-9023
▁خرابیاں	-9024
▁خواہشیں	-9025
▁خوشحالی	-9026
▁دلادیتی	-9027
▁دکھايیے	-9028
▁دکھايے۔	-9029
▁دکھایا۔	-9030
▁دیکھیں۔	-9031
▁ذرامیری	-9032
▁رعایتیں	-9033
▁رپورٹنگ	-9034
▁رکاوٹوں	-9035
▁سرفہرست	-9036
▁سرپرستی	-9037
▁سماعتیں	-9038
▁سمجھاتا	-9039
▁سمجھانا	-9040
▁سمجھانے	-9041
▁سمجھایا	-9042
▁سمجھوتہ	-9043
▁سنسناٹی	-9044
▁سوسايٹی	-9045
▁سولايزڈ	-9046
▁سویابین	-9047
▁سٹریلوی	-9048
▁سیکٹرکی	-9049
▁سےفايدہ	-9050
▁شعرکہنا	-9051
▁صدربننے	-9052
▁عصبیتیں	-9053
▁عہدیدار	-9054
▁فاينلسٹ	-9055
▁قرارداد	-9056
▁لاچاروں	-9057
▁لیورپول	-9058
▁لیگویمن	-9059
▁مادھوری	-9060
▁مذاکرتی	-9061
▁مسافروں	-9062
▁مسلمانی	-9063
▁مسکرانا	-9064
▁مصروفیت	-9065
▁مظلوموں	-9066
▁معاہدوں	-9067
▁منوایا۔	-9068
▁مواقعوں	-9069
▁میںکرنے	-9070
▁نبھایا۔	-9071
▁وگریباں	-9072
▁ویبسايٹ	-9073
▁ٹھہرتا۔	-9074
▁ٹیمپرنگ	-9075
▁پانچویں	-9076
▁پختونوں	-9077
▁پراسرار	-9078
▁پروازیں	-9079
▁پھیلايے	-9080
▁پھیلایا	-9081
▁چلتاہے۔	-9082
▁چھینکنے	-9083
▁ڈايیلاگ	-9084
▁ڈايیونگ	-9085
▁ڈھانپتے	-9086
▁کارنامے	-9087
▁کاطریقہ	-9088
▁کافیصلہ	-9089
▁کرتاہوں	-9090
▁کرتوتوں	-9091
▁کرینگےس	-9092
▁کلاس۔۔۔	-9093
▁کمیٹیوں	-9094
▁کنونشنز	-9095
▁کوموروس	-9096
▁کٹاکانا	-9097
▁کھلونوں	-9098
▁کھوکھلا	-9099
▁کھٹکھٹا	-9100
▁کھیلانے	-9101
▁کہتاتھا	-9102
▁کیربيین	-9103
▁کےعلاوہ	-9104
▁گھرپہنچ	-9105
▁یاحادثے	-9106
▁یادداشت	-9107
▁یونیکوڈ	-9108
▁ابوسفیان	-9109
▁امیرترین	-9110
▁امیگریشن	-9111
▁اندھیروں	-9112
▁اورجہاد۔	-9113
▁اورنوعیت	-9114
▁اورہوٹنگ	-9115
▁اپلاينسز	-9116
▁ایتھلیٹس	-9117
▁ایتھوپیا	-9118
▁ایجوکیشن	-9119
▁ایيرلاين	-9120
▁ایکسپاير	-9121
▁بالواسطہ	-9122
▁برٹینسکی	-9123
▁بنگلادیش	-9124
▁بھوجپوری	-9125
▁تبدیلیوں	-9126
▁تنخواہوں	-9127
▁داستانیں	-9128
▁دکھلايیں	-9129
▁دیوبندکے	-9130
▁راہگیروں	-9131
▁زمبابوبے	-9132
▁زیرتعلیم	-9133
▁صاحبزادی	-9134
▁عیدالضحی	-9135
▁قايداعظم	-9136
▁لکھاریوں	-9137
▁محاذوںپر	-9138
▁ملاقاتیں	-9139
▁مینیجمنٹ	-9140
▁نافرمانی	-9141
▁نکلےہويے	-9142
▁پسندیدگی	-9143
▁پیداواری	-9144
▁پیراشوٹر	-9145
▁کاکینیڈا	-9146
▁کرغزستان	-9147
▁کمزوریوں	-9148
▁کھانےنکے	-9149
▁کھنگالا۔	-9150
▁ہوسکتاہے	-9151
▁یونیفارم	-9152
اورمرکرايے	-9153
مہنگےذرايع	-9154
▁الیکٹرانک	-9155
▁اورسونالی	-9156
▁اورمحاورہ	-9157
▁ایپلیکیشن	-9158
▁خاطرلوگوں	-9159
▁خیزمقابلے	-9160
▁دارلحکومت	-9161
▁سےپیداوار	-9162
▁شکستسیریز	-9163
▁مہاراشٹرا	-9164
▁نادہندگان	-9165
▁نواجوانوں	-9166
▁وینٹیلیٹر	-9167
▁ٹيکنالوجی	-9168
▁پھیلادیتا	-9169
▁پیغمبرانہ	-9170
▁پیٹرساگان	-9171
▁ڈےانگلینڈ	-9172
▁کامیابیوں	-9173
▁کوکاروبار	-9174
▁کیليےمختص	-9175
▁ہزارافراد	-9176
▁اسٹریلیاکے	-9177
▁امیتابھبچن	-9178
▁انٹارکٹیکا	-9179
▁اورخوبصورت	-9180
▁برخورداران	-9181
▁تجاوزکرگیا	-9182
▁سمجھوتاکیے	-9183
▁علمبرداروں	-9184
▁مسافربردار	-9185
▁ملزملازمین	-9186
▁پرایکسپورٹ	-9187
▁کوجارہاہے۔	-9188
▁انعقادپیوٹن	-9189
▁سرمایہکاروں	-9190
▁فرانسسايیکل	-9191
▁قادرالکلامی	-9192
▁ٹیسٹپاکستان	-9193
▁ڈسمبرایجنسی	-9194
▁کولاقانونیت	-9195
▁یونیورسٹیوں	-9196
▁تاجروںشہریوں	-9197
▁سیریزپاکستان	-9198
▁کرینگےسرفراز	-9199
▁گوادربندرگاہ	-9200
▁گیمزپاکستانی	-9201
▁اضافہمہنگےذرايع	-9202
▁کرگيےاورمرکرايے	-9203
شپ	-9204
ابی	-9205
ادے	-9206
ماہ	-9207
نان	-9208
پیٹ	-9209
کوچ	-9210
اسطہ	-9211
بخار	-9212
جران	-9213
خانہ	-9214
خبری	-9215
زاور	-9216
زیگو	-9217
فسیر	-9218
قومی	-9219
ورٹس	-9220
وینا	-9221
ینیم	-9222
▁جلے	-9223
▁سرک	-9224
▁نیٹ	-9225
▁چمچ	-9226
انکنے	-9227
اکیوں	-9228
دانیت	-9229
ونسلے	-9230
▁اداب	-9231
▁اگاہ	-9232
▁جزوی	-9233
▁ذمرہ	-9234
▁رتھر	-9235
▁رفیق	-9236
▁سریے	-9237
▁قداں	-9238
▁لپیٹ	-9239
▁مذید	-9240
▁نہلا	-9241
▁وسنت	-9242
▁پلاو	-9243
▁چھڑی	-9244
▁ہاں۔	-9245
ماہرین	-9246
▁ءمیرے	-9247
▁ارادے	-9248
▁اورہر	-9249
▁ایلوم	-9250
▁تفسیر	-9251
▁جاتا۔	-9252
▁جنونی	-9253
▁رنویر	-9254
▁روکتے	-9255
▁ریسلر	-9256
▁سواتی	-9257
▁سٹیزن	-9258
▁سکايی	-9259
▁سکرین	-9260
▁شمشاد	-9261
▁عدنان	-9262
▁فوايد	-9263
▁فوايل	-9264
▁لیموں	-9265
▁ماننے	-9266
▁ممنوع	-9267
▁واسطہ	-9268
▁پیروی	-9269
▁چھوڑے	-9270
▁چیخنے	-9271
▁کوشاں	-9272
▁کھارے	-9273
▁اتاہے۔	-9274
▁ادھوری	-9275
▁اشاریہ	-9276
▁بوسنیا	-9277
▁بگولوں	-9278
▁حدیبیہ	-9279
▁خشخبری	-9280
▁رکھیيے	-9281
▁شعاعیں	-9282
▁متاثرہ	-9283
▁متواتر	-9284
▁مزاحیہ	-9285
▁ناکام۔	-9286
▁کوبخار	-9287
▁کیجیے۔	-9288
▁ہرزیگو	-9289
▁ہوجایا	-9290
▁ہیڈکوچ	-9291
▁یوروپی	-9292
جرانوالہ	-9293
▁اہلخانہ	-9294
▁براکیوں	-9295
▁جھانکنے	-9296
▁خواہانہ	-9297
▁دھمکیوں	-9298
▁فاينڈنگ	-9299
▁فرمايیں	-9300
▁مالیاتی	-9301
▁وحدانیت	-9302
▁گھونسلے	-9303
▁بغیرکويی	-9304
▁سنبھالنے	-9305
▁کرنیوالے	-9306
▁ایلومینیم	-9307
▁پریشانیوں	-9308
▁ہدایتکاروں	-9309
▁ہرزیگووینا	-9310
اگے	-9311
بجا	-9312
بضہ	-9313
جدے	-9314
رنط	-9315
رپٹ	-9316
رکت	-9317
سٹن	-9318
طعا	-9319
عقل	-9320
عنت	-9321
نبھ	-9322
نہی	-9323
وچے	-9324
ھا۔	-9325
ہوا	-9326
ابطی	-9327
اختہ	-9328
ارڈز	-9329
اظہر	-9330
افيا	-9331
اقان	-9332
الاق	-9333
التہ	-9334
الڈو	-9335
انتظ	-9336
انسر	-9337
انشا	-9338
اونت	-9339
ايبل	-9340
اڈیل	-9341
ایسے	-9342
بارٹ	-9343
بالا	-9344
باکو	-9345
بدیہ	-9346
بھی۔	-9347
تیرہ	-9348
جسٹم	-9349
جنٹس	-9350
حفیظ	-9351
رازی	-9352
ریحا	-9353
زدوں	-9354
زلوں	-9355
زنشل	-9356
سسٹم	-9357
سولی	-9358
شرکا	-9359
علما	-9360
علوم	-9361
عنقا	-9362
غازی	-9363
فہوم	-9364
میڈی	-9365
نازع	-9366
نازک	-9367
ناچا	-9368
نبھے	-9369
نسٹن	-9370
نشاہ	-9371
نماي	-9372
نورے	-9373
وفرو	-9374
يميا	-9375
پناٹ	-9376
پوچے	-9377
پینو	-9378
چھاڑ	-9379
ڈریا	-9380
کاغذ	-9381
کويز	-9382
کیسے	-9383
گزیک	-9384
گويے	-9385
گیا۔	-9386
یمیٹ	-9387
۔جاو	-9388
▁اشد	-9389
▁اشک	-9390
▁اغی	-9391
▁بوي	-9392
▁تدف	-9393
▁تفہ	-9394
▁تلخ	-9395
▁جزي	-9396
▁حشر	-9397
▁حوث	-9398
▁رشو	-9399
اضی	-9400
اٹے	-9401
اڑو	-9402
رتھ	-9403
ڈمے	-9404
زاير	-9405
▁اقا	-9406
▁خضر	-9407
▁سگے	-9408
▁سہا	-9409
▁سہہ	-9410
▁شدد	-9411
▁شمع	-9412
▁صفح	-9413
▁ضلع	-9414
▁عکس	-9415
▁غزہ	-9416
▁فلن	-9417
▁فگن	-9418
▁لغت	-9419
▁لٹل	-9420
▁لہج	-9421
▁ماڈ	-9422
▁مفل	-9423
▁نیچ	-9424
▁وخش	-9425
▁وصل	-9426
▁وضع	-9427
▁وقو	-9428
▁ٹرن	-9429
▁پشا	-9430
▁پلٹ	-9431
▁پمپ	-9432
▁پوچ	-9433
▁پٹو	-9434
▁چاھ	-9435
▁چوپ	-9436
▁چہی	-9437
▁کدے	-9438
▁کنڑ	-9439
▁گنت	-9440
▁ھوے	-9441
▁ہاگ	-9442
▁ہضم	-9443
▁ہڈی	-9444
▁ہہن	-9445
▁یسے	-9446
▁یکط	-9447
اجواب	-9448
اروسی	-9449
ازاوی	-9450
انوٹس	-9451
انکار	-9452
انکپن	-9453
ايیکی	-9454
بنانی	-9455
جايے۔	-9456
جيیے۔	-9457
حادثہ	-9458
درامد	-9459
دھرنے	-9460
رابطی	-9461
رانٹو	-9462
راہیم	-9463
رہبرا	-9464
ریدوں	-9465
سریاں	-9466
سیاسی	-9467
شتراک	-9468
شیايی	-9469
عاملہ	-9470
لامیے	-9471
منٹوں	-9472
مودود	-9473
نےاور	-9474
وروار	-9475
وشمان	-9476
ونٹین	-9477
وکروں	-9478
يیڈمے	-9479
ٹریٹج	-9480
ٹفکیٹ	-9481
پایوں	-9482
پولیس	-9483
ڈوادی	-9484
کردیا	-9485
کلیير	-9486
کوسکی	-9487
کولمب	-9488
کیشنل	-9489
گاہوں	-9490
گزاشت	-9491
یرونا	-9492
یسسٹر	-9493
یمیٹی	-9494
▁ءاسی	-9495
▁اثار	-9496
▁ارتک	-9497
▁اطال	-9498
▁الوط	-9499
حمد	-9500
شہید	-9501
شیان	-9502
میشہ	-9503
واتے	-9504
کبیر	-9505
▁حمد	-9506
▁دکو	-9507
▁رخی	-9508
▁رکو	-9509
▁عسک	-9510
▁مبہ	-9511
▁ممد	-9512
رمحمد	-9513
عوامی	-9514
ماعتی	-9515
ناکشی	-9516
وزبان	-9517
▁الہن	-9518
▁ايرن	-9519
▁ايسے	-9520
▁اٹام	-9521
▁اٹبر	-9522
▁اٹکا	-9523
▁اچار	-9524
▁اڈیو	-9525
▁اڑتی	-9526
▁اکھا	-9527
▁ایا۔	-9528
▁ایمب	-9529
▁ایپٹ	-9530
▁بابا	-9531
▁باغا	-9532
▁بانس	-9533
▁برتر	-9534
▁برمد	-9535
▁بریڈ	-9536
▁بسنت	-9537
▁بعید	-9538
▁بلاو	-9539
▁بنی۔	-9540
▁بٹور	-9541
▁بکری	-9542
▁بگلا	-9543
▁بھاڑ	-9544
▁بھوت	-9545
▁بھڑک	-9546
▁بیکٹ	-9547
▁تارڑ	-9548
▁تجلی	-9549
▁تصوف	-9550
▁تکیہ	-9551
▁ثواب	-9552
▁جامو	-9553
▁ججوں	-9554
▁جرسی	-9555
▁جزیر	-9556
▁جمعہ	-9557
▁جوڑے	-9558
▁جکڑا	-9559
▁جھون	-9560
▁جھیل	-9561
▁حقیر	-9562
▁حلقہ	-9563
▁حماي	-9564
▁خاکم	-9565
▁خبرد	-9566
▁خراج	-9567
▁خرچا	-9568
▁خشوع	-9569
▁خلیج	-9570
▁خمار	-9571
▁داوچ	-9572
▁درجن	-9573
▁درمد	-9574
▁دستر	-9575
▁دستہ	-9576
▁دستی	-9577
▁دھاڑ	-9578
▁دھلا	-9579
▁دھند	-9580
▁دہلا	-9581
▁دیجے	-9582
▁دیگا	-9583
▁ذیلی	-9584
▁رابط	-9585
▁راکی	-9586
▁راہد	-9587
▁راہل	-9588
▁رحمد	-9589
▁رستم	-9590
▁رسما	-9591
▁رشوت	-9592
▁رفتہ	-9593
▁رفقا	-9594
▁رنجش	-9595
▁رومز	-9596
▁رکشہ	-9597
▁ریڑھ	-9598
▁ریگن	-9599
باع	-9600
باڈ	-9601
تعل	-9602
جوا	-9603
فقہ	-9604
نجم	-9605
وزک	-9606
جومی	-9607
حدود	-9608
لاجو	-9609
لوات	-9610
میکس	-9611
ٹسوب	-9612
چیور	-9613
یکسن	-9614
▁بس۔	-9615
▁تیغ	-9616
▁خفت	-9617
▁شہد	-9618
▁عوض	-9619
▁فلو	-9620
▁مضح	-9621
▁مہک	-9622
اخانہ	-9623
ادوال	-9624
ايلٹس	-9625
باڈوس	-9626
جانوں	-9627
دانوں	-9628
وزارت	-9629
ڈالرا	-9630
کانوں	-9631
▁اشتع	-9632
▁اعضا	-9633
▁ایشی	-9634
▁بیٹس	-9635
▁داتا	-9636
▁ریچھ	-9637
▁زریں	-9638
▁زیور	-9639
▁سانچ	-9640
▁سباق	-9641
▁سجدے	-9642
▁سروش	-9643
▁سوجن	-9644
▁سونم	-9645
▁سويپ	-9646
▁سٹیگ	-9647
▁سپاہ	-9648
▁سپرب	-9649
▁سکاٹ	-9650
▁سکوت	-9651
▁سیرس	-9652
▁سیما	-9653
▁سینہ	-9654
▁شافی	-9655
▁شرمی	-9656
▁شفاء	-9657
▁شناس	-9658
▁شکوہ	-9659
▁صابر	-9660
▁صحاب	-9661
▁صدقے	-9662
▁صلیب	-9663
▁ضبوط	-9664
▁طلبہ	-9665
▁عاقب	-9666
▁عزت۔	-9667
▁عشاق	-9668
▁عیاش	-9669
▁غافل	-9670
▁غرور	-9671
▁غیرت	-9672
▁فارو	-9673
▁فاسو	-9674
▁فايز	-9675
▁فرقے	-9676
▁فلیٹ	-9677
▁فوسل	-9678
▁فیرو	-9679
▁قاضی	-9680
▁قباي	-9681
▁قدمی	-9682
▁قرضہ	-9683
▁قطعا	-9684
▁قلعی	-9685
▁لادن	-9686
▁لانچ	-9687
▁لاوس	-9688
▁لعنت	-9689
▁لفظی	-9690
▁لٹکے	-9691
▁لکیر	-9692
▁لیپر	-9693
▁ماشا	-9694
▁مالہ	-9695
▁متحد	-9696
▁مدعی	-9697
▁مراح	-9698
▁مراع	-9699
ادق	-9700
سید	-9701
فید	-9702
قیس	-9703
مرد	-9704
نگس	-9705
نیب	-9706
ينز	-9707
چیل	-9708
گتا	-9709
یتھ	-9710
▁صل	-9711
▁طر	-9712
▁ظہ	-9713
▁ٹچ	-9714
اباد	-9715
ايیگ	-9716
طبیع	-9717
لگتا	-9718
ندیم	-9719
نٹوا	-9720
کھوں	-9721
▁جوس	-9722
▁جھر	-9723
▁خشو	-9724
▁زاد	-9725
▁زين	-9726
▁سمو	-9727
▁صنا	-9728
▁قیم	-9729
▁لیز	-9730
▁متش	-9731
▁محل	-9732
▁پزد	-9733
▁چھو	-9734
▁ینی	-9735
اتھال	-9736
اداری	-9737
اسمجھ	-9738
ظرمیں	-9739
پسندی	-9740
چیلسی	-9741
ہےہیں	-9742
▁اریٹ	-9743
▁اسمی	-9744
▁اورل	-9745
▁بستا	-9746
▁جوتا	-9747
▁جولی	-9748
▁دانے	-9749
▁زينت	-9750
▁صادق	-9751
▁طبعی	-9752
▁ظہیر	-9753
▁فلیر	-9754
▁مرتد	-9755
▁مردے	-9756
▁مستن	-9757
▁مستی	-9758
▁مسرت	-9759
▁مفرو	-9760
▁مقدس	-9761
▁منزہ	-9762
▁موخر	-9763
▁میوہ	-9764
▁نبوی	-9765
▁نجوم	-9766
▁نذیر	-9767
▁نروس	-9768
▁نصیر	-9769
▁نعرہ	-9770
▁نقاد	-9771
▁ننجی	-9772
▁نویں	-9773
▁نکمے	-9774
▁نیچا	-9775
▁وعرض	-9776
▁وعید	-9777
▁وقفہ	-9778
▁وقوف	-9779
▁ووڈا	-9780
▁ویدر	-9781
▁ویزہ	-9782
▁ٹاسک	-9783
▁ٹاکر	-9784
▁ٹرتھ	-9785
▁ٹریڈ	-9786
▁ٹنگا	-9787
▁ٹھیس	-9788
▁ٹیکا	-9789
▁پاتی	-9790
▁پاشا	-9791
▁پاغل	-9792
▁پانٹ	-9793
▁پتلا	-9794
▁پراگ	-9795
▁پزدل	-9796
▁پورٹ	-9797
▁پونٹ	-9798
▁پچاس	-9799
سس	-9800
سف	-9801
اعش	-9802
بلی	-9803
يیز	-9804
ٹوٹ	-9805
کیف	-9806
یرن	-9807
ادیں	-9808
الاز	-9809
انپے	-9810
اکسف	-9811
رانز	-9812
ریزے	-9813
ریز۔	-9814
زانہ	-9815
لینا	-9816
مال۔	-9817
ونلڈ	-9818
ڑتال	-9819
ھیيے	-9820
▁اپس	-9821
▁بتی	-9822
▁تلہ	-9823
▁تیم	-9824
▁سنے	-9825
▁طول	-9826
▁ميے	-9827
▁چاو	-9828
▁کرہ	-9829
رانزٹ	-9830
عمال۔	-9831
نڈیشن	-9832
▁اجتک	-9833
▁تجسس	-9834
▁داعش	-9835
▁رحمن	-9836
▁رسید	-9837
▁زاہد	-9838
▁سودا	-9839
▁لیلہ	-9840
▁مارک	-9841
▁ملے۔	-9842
▁نايٹ	-9843
▁ننگے	-9844
▁نہتے	-9845
▁ٹايی	-9846
▁پڑو۔	-9847
▁پڑھے	-9848
▁پکھا	-9849
▁پھاڑ	-9850
▁پھری	-9851
▁پھوٹ	-9852
▁پھٹی	-9853
▁پہنت	-9854
▁پیسی	-9855
▁پیلز	-9856
▁پینل	-9857
▁پیٹس	-9858
▁پیپر	-9859
▁چارپ	-9860
▁چانس	-9861
▁چرچل	-9862
▁چندہ	-9863
▁چننا	-9864
▁چوٹی	-9865
▁چکاو	-9866
▁چکور	-9867
▁چھاے	-9868
▁چھٹک	-9869
▁چیتا	-9870
▁چیتے	-9871
▁چینج	-9872
▁ڈالو	-9873
▁ڈرنا	-9874
▁ڈھلے	-9875
▁ڈھکن	-9876
▁ڈیتھ	-9877
▁ڈیرن	-9878
▁ڈیول	-9879
▁ڈیٹس	-9880
▁کاجن	-9881
▁کاٹن	-9882
▁کشتی	-9883
▁کلکت	-9884
▁کمپی	-9885
▁کمیل	-9886
▁کولر	-9887
▁کویٹ	-9888
▁کيے۔	-9889
▁کھرے	-9890
▁کھوج	-9891
▁کہو۔	-9892
▁کیاب	-9893
▁گرچہ	-9894
▁گلین	-9895
▁گندھ	-9896
▁گندے	-9897
▁گننا	-9898
▁گورے	-9899
بط	-9900
تح	-9901
نظ	-9902
اکا	-9903
تاج	-9904
تاں	-9905
حصہ	-9906
متو	-9907
ناد	-9908
نون	-9909
وسر	-9910
ٹیک	-9911
ینز	-9912
▁شن	-9913
▁عک	-9914
▁فق	-9915
▁چہ	-9916
ادیت	-9917
اوند	-9918
ڈٹیک	-9919
ھیوں	-9920
▁احد	-9921
▁اری	-9922
▁امک	-9923
▁	-9924
ا	-9925
ی	-9926
ک	-9927
ر	-9928
ہ	-9929
و	-9930
ن	-9931
ے	-9932
م	-9933
ت	-9934
س	-9935
ل	-9936
ب	-9937
ں	-9938
د	-9939
ھ	-9940
پ	-9941
ج	-9942
۔	-9943
گ	-9944
ي	-9945
ف	-9946
ع	-9947
ٹ	-9948
ق	-9949
ش	-9950
ز	-9951
چ	-9952
ح	-9953
خ	-9954
ص	-9955
ڈ	-9956
ط	-9957
ڑ	-9958
ض	-9959
ظ	-9960
غ	-9961
؟	-9962
ذ	-9963
ث	-9964
،	-9965
5	-9966
e	-9967
2	-9968
4	-9969
f	-9970
7	-9971
3	-9972
9	-9973
0	-9974
6	-9975
c	-9976
8	-9977
b	-9978
1	-9979
a	-9980
d	-9981
m	-9982
‘	-9983
_	-9984
i	-9985
o	-9986
r	-9987
ء	-9988
'	-9989
t	-9990
u	-9991
"	-9992
.	-9993
ه	-9994
h	-9995
l	-9996
